node {
  name: "dense_input"
  op: "Placeholder"
  attr {
    key: "dtype"
    value {
      type: DT_FLOAT
    }
  }
  attr {
    key: "shape"
    value {
      shape {
        dim {
          size: -1
        }
        dim {
          size: 2
        }
      }
    }
  }
}
node {
  name: "dense/kernel"
  op: "Const"
  attr {
    key: "dtype"
    value {
      type: DT_FLOAT
    }
  }
  attr {
    key: "value"
    value {
      tensor {
        dtype: DT_FLOAT
        tensor_shape {
          dim {
            size: 2
          }
          dim {
            size: 64
          }
        }
        tensor_content: "\346l\222\2765\250\250>\254rJ\276\233\367\253>|\3304\276\215\035\212>\275\"\310:\254u\245>\242D\031\276\030\263\221\276\263\250\017>\356\027\206>\207I\3129r\3421\276u\267\205\276n\216\203\276\347;F>H\373\025\275\"\303{\2768\367\300=@\020_\276\316\372E>5\243\246>\330\033\205\276y\357\r\276@\334\364\275LE^\276\225\325x>\253U\361=\014w\221>\021rd>\262\357`\276!\025p>c\237\223\276PF\300\274|\263L\276fed\276/w}\276\237\t\001\276\004\244?>X\214\215>\204V\223\276/\024+>j\230H\276Lr\302\274\234\037\'>\0314@=\276\177l\276?\354\252<\024\207w\276\375<O>\357R\306\275h\312R\274\260\317#\276\215;+\276\031}\211>\346\314\377=\272\305\205>\370\030->\277\212\213>\362.S>Z\034L\2762\266\227\276W\250<>\240%p>\325\300\306\275\252q\203\276\025\234\251\276`|\303\274^z/>&l\010\274\335]\221\276\200\310\304\273 \023\217\274\3061q\2761\375\336=\n\256\205\276S[\226\276\000\037\211>\257ys>L}\023\276[:E\276\033\020f>\036UR=\030\'(\276\0369\247>\251JJ\275P\356\353\274Bz\353\275\261%\007\2767\014X>v\260\231\276NVQ>\271\335\221\276\267\352S\276\205\253:>W\2065<Bve>\314\2446\276\216\"\377\275\240}\020>\205\323\201\276\260\334\345\275\343S\002\276\366\3070\275\275\340\201\276\230\344\320<\210Zh\275\326\357\357=Ul\020\276Ax\003>\r\\\226>EG\347=T\220\016\276\246h\030={\242\262>E\177\211>h\267\362=\200\335->\"C\201>JQW=Z\2048\276@\002=>\361\310\301>\022\223q\275\332\3173\276\253\037\256=\264\332\366="
      }
    }
  }
}
node {
  name: "dense/bias"
  op: "Const"
  attr {
    key: "dtype"
    value {
      type: DT_FLOAT
    }
  }
  attr {
    key: "value"
    value {
      tensor {
        dtype: DT_FLOAT
        tensor_shape {
          dim {
            size: 64
          }
        }
        tensor_content: "L&-=\346&\036=\000\000\000\000\226\236\3436\000\000\000\000\333\333\331\274\322<\031\274h\254<=\000\000\000\000\000\000\000\000\333\216\354\266\024D\310=\3452\276\273\000\000\000\000\000\010\3023\325e\321<M\231\332\267\000\000\000\000C\206\277=\205\206\357\274\000\000\000\000\305\276\364\274\227F\316=\000\000\000\000\000\000\000\000\000\000\000\000v\"\212;\244\343<\270\315R\2144\260m\010\267v\300P\270\225\004\2756-\356\312<\322\024\014=\000\000\000\000\000\000\000\000\346#\315\266\000\000\000\000\000\000\000\000\032L9\270%<\244=\000\000\000\000\301\233\265=\000\000\000\000=\256\220=Ku\342=\200IG=\341:\202\273\304\033\301\274\000\000\000\000\274\201\030\275\366\334\375=\203\014u=\344\306Y<E\035\327\267&\340\002\272\021\227\247<\n\374b6$F\2026\013\013\204=\037Q\370<\000\000\000\000\220\342/\270\245\276\037="
      }
    }
  }
}
node {
  name: "dense/MatMul/ReadVariableOp"
  op: "Identity"
  input: "dense/kernel"
  attr {
    key: "T"
    value {
      type: DT_FLOAT
    }
  }
}
node {
  name: "dense/MatMul"
  op: "MatMul"
  input: "dense_input"
  input: "dense/MatMul/ReadVariableOp"
  attr {
    key: "T"
    value {
      type: DT_FLOAT
    }
  }
  attr {
    key: "transpose_a"
    value {
      b: false
    }
  }
  attr {
    key: "transpose_b"
    value {
      b: false
    }
  }
}
node {
  name: "dense/BiasAdd/ReadVariableOp"
  op: "Identity"
  input: "dense/bias"
  attr {
    key: "T"
    value {
      type: DT_FLOAT
    }
  }
}
node {
  name: "dense/BiasAdd"
  op: "BiasAdd"
  input: "dense/MatMul"
  input: "dense/BiasAdd/ReadVariableOp"
  attr {
    key: "T"
    value {
      type: DT_FLOAT
    }
  }
  attr {
    key: "data_format"
    value {
      s: "NHWC"
    }
  }
}
node {
  name: "dense/Relu"
  op: "Relu"
  input: "dense/BiasAdd"
  attr {
    key: "T"
    value {
      type: DT_FLOAT
    }
  }
}
node {
  name: "dense_1/kernel"
  op: "Const"
  attr {
    key: "dtype"
    value {
      type: DT_FLOAT
    }
  }
  attr {
    key: "value"
    value {
      tensor {
        dtype: DT_FLOAT
        tensor_shape {
          dim {
            size: 64
          }
          dim {
            size: 64
          }
        }
        tensor_content: "h\373\201>\321}\004>ze\264:\220\031\300=\2066\212=\027,q=j\362\214=AZ\271=\271d\377\2758\204\236\275\247\332x\276\224kF\275\314\316\001=\007\023\020>\340\361\033=ak/\275\205uX>\362\004X\276\314V\010\275<\274L\276\367g\032>3s)<FX[\273\215\3003>&Z\026>D\205\335=\212S7>\021\357\267\275\276\274y>\367\306q>\000\000\0216q\251\013\276\000\257|\276\223\226\016>C\257\202=&\237_\275\t\030h\276\211\247\241=P\r\304<\206le>\356.\366\275\376\376\373\275\337\333\277=\216\232R\276\360\2013\276\247\023R\276\262\376*>:\242\256=\313}0>8\333V\275j\377\363\274\372}\n>ae\034>\036\330\034\276\320\205\313\274\266\373\027\276@\365\316;\032\261\202\276{\3413\276\034\366+>Y\356y>Y\210\020<\255\000Q>`\2407>\3010J=\024\337\310\275\253p5>k\323\035\276\321\254\036>\014\005o\275C\335=\276\346D\357\275\260vA\275\210[i;]3\221\275jF\350=\013c\016\276\205\347&\276\333Zo\275\21464>\366\\\205=\353\243\006>\231LL>\352\375\363=\253\271\334=L\372*\276\320/\031\276\337\000Z\276[U[\276\016\001>> \355\223\275\031C\344=\316\227,>\352\277\201\276\234M>\276\362\242\377\274)\374\355=\rr\252\275\344\302\373=\310\355\372\275X\004\247=\023\336\240=,\226\322\274\366\267s=\274x\235\275\310/\215\273\373g!\276\264U5>\313;P>\355\315\005>\353J\344=\244OB\274\240\nA\274\203\"\304\275@d\036\275\240\273,\276\0058\326\275\0174\244\275\r\353\375\275c~_=\352\346\371=Q\211\201>t\223\036\276\006\022`>&\333G=\356\016.>\305\032o\274\347(^\274\256Q\214\275F\354\270=\277\3412>\352\3320\276x\342\333\274\300|\r\273\322:\201=\344\237m\275\270\221\321\274\231xP>\313\324S\276\2148\004\276\317\312\016>\260u\234\274YM5>\236\340C\276\317\016\306\275\"cE\276E\350\021>.\310\r\276\365d\001\276\000\360\331\273\210\326\260\275\340\203\003\276/\226\023>V\263\305\275\024\2131=t|y\275v*\263=\220\2134\274\223\212\">]P#>\206\"\351=z,\277=\210\244\366\275\224\317;\276\022\367\242=AC!\276\340\244B\2752W\206=.\243\366=\0008\001<*\344\232=\355\006\353\2756\3742\276\277\\\021\276\240\215\371\274\232\366\320=`\356\'\274}\376J\276\236\003\341=\325_.>\035!W>\304\313/\276\000k\355;\330\301M\276\220\306\313\274\020\337\262\2755A8>\330q\344<@2\n<\322\376\330=\"\006\216=}aK>RZ\212>@mK\275Q;+<\330\346z>H\362\000>\205\013\n\276\330\201\034\275\2634w\276]X\017>\021`>\276\362\347\335\275\324\022\316\275g\032\001>^\035P\274\017\355E\275\254\003\371\275{\363\311<\252\262\271=tA\323=\335\3735\276\326P\031\276\335=k\276$\352l\276\237\337\330\275\262\253Y\274l9t>\335\205\216\275?\'\271=\206\3240=p\303\030>8\nx\275\306Y \275\0107k=7\356R\276\372\025\020=\374\032\353\2745\247\251\272\300\304\235=i\311\342\275zW\335\275C\376Z\276(\226\301=\025\003\242=\255\377\253\275\322\030^\275\030U,>\343\302\247\275C\202\373\275h=\251\275=\206e\275\361\375H>\366\027u\276\333\007\227=\315\007\323\275\315\0162>f\3077>-\r@=\225\020]>8\020\333<\3357t\276\272\024\247=~\336\212\276V\274\251\275\336\300h;0a3\276I\252Z>&\212;\276\200\323\266;j\037\342=\030\205\223<\240\207\225\273\345\021]\276\350E\337\274-\303*\276\301\3669>\217\225\311\275\374\241F\275`\371?\275\360\345?\274\331OG\276\355\330\021>\271\033%>\336n\313=\210\230Z\276\234\350\332\275\216\312\256=`sF\275\335\262U\276\340E\273;<C\005=mb\013>$\251\026\27506\237<l\313+\2769\203\010\276\210\023\003\276\203\243#>7JI>\\\311p\275\231J:>zB\347=^\342\035\276\177h\306\275\rd%>\314\220\254\275Ra3\276Y\355\005>2\211\250\275\201\360*>\202q\007\276G\350\301\275$\337M\276\002\333\375=\300\231\017\275\265?(>\036;\354={L=\276\353H\343\275\320\003t\275\001j\004>\200J\260\272\344/[\275\364\n\\\275\347\0377>\366\346\205\275\204\315Y=\013p\014>a\0370\276\263\270\376\275\'\302,=V\307\005\276 \032\331\275\313\273\003>\021\204\253\275\030\233I\276\204\0325\276\237\351\375\275b\017;\276J\017E>\326\\N\276-k?\276\360\364@=F\0325\276\014\003\201\2756\226j\275>P\260\274\347\361\305\275M\316\">\244\\1\2766\317\306\275h_3>X0\357\275\371\352\325\273>\352\005\276\321\020\005\276(1\002=n\250v>W\\|=\326\244\316=\334\010\t>\232\020\261\275\344P\263=:\022\303;\265\300\357=\342\025;\276\236_\311=\347nG\276\305\362\215\276\007\261e\275v\206]>n\303$>\232w\020>\202=\212=\362nx\272\304\177:\276!c\307\275@9\262<\336(\033\276\351.*>%\355M=\320k#\2762\212>>ar\234=\246\341\355=\264.\364\275\266\204J\275\376\240;\276\022V\302\2745i\004>\361x[>\320\320\004<\001\247J\276=\302\234\275z\373\307<\375Pu\275\333\346\002=\263\347\322=\327\250\020\275\346\203\010>\326\375\361=\362s\311\275\264\222\035\276!\247\026\275H\337\232<\305\255\265=\037\033\305=<`\372=\324=\376\275uf\004>}z(\275K/\016=\330:\245\274\255\245\243\2749\332\204\275\027DL>\376[\260\275<\233K\276\256\257 \276\376Y]\276/zP\276\352\375\021>\342\341\340=\000>\t\275\206\375\031=\262\273\375\275\274K\306<\264\257\r>\353\313\260=\230\337\206={\272\270\275oM\337\275H,\226\274/\"x\274\214\231Z<h\343\026\276\303e9\275\322?\363=\311Me>\207p\000>,\323\244\272\322F\206\275\371\303\253=\350u\324<13L>\364\305>=\260v\"\276\211\251\031\272\240|\220\275\032\3144\276#sK>>H`=\220\274\007\276\265iB\276N\310Z=\\K\211\275\306\313\253=\341\301y>0\243)=\353\256t=\310\005Y=\343s\231\275\305kj\2768\202l<&\177\006\276\224\315\034\2751X!\276@9\253=J\330\376=\276\320O>{\345\317=/q&\276\335\367f>y\3011>\002\202\031>]\255B=\362\000W\276\306d@>GNu\276\256\343C\276\266\317B\276\325\035\020\276 ,\014>\267\215\031=\343R\333\274l\312\343\275\321\025\256\275\362G\033\276\376\220C=\006Y\202>J\026\222\275\2363u>\375\"^\275\252\003\347\275\334BQ=C^J\275n\023%\2747IM=,\322\207>P\004Y\275-\217D>7y1>{\324\210>S\205\243=1\203\034>\244;X\276W\266\037>\216\211B>\200\022\022\276E\251\232=\266v;>)\325}\275W\342\3369O\006I\276:,<=\027\347\336\275%Q\224=TD\033=\023\'\331=\274\2569\276\226 \367=\340\311\370\274\301\365H>V\017\220\275\267\241 >\026R;\276,xD\276\206\377\244\275Jp\332=\215\316\027\276 \230n<&\003\343=|_\306\275\262\354\370=\200\336b<\330_\372<8\236\\\275\230\340L\276\350o\036\276w{9>t@\007\2769jT>\222\210V\276E\273\003>(+\275\274\240\r?\274\26592>Yp4><\317!=\"\310T\276\325\203>>\006\013\306=\223\247\023>H\350Q\275\234\3740=D^F\275\024\377\014\275nZ\036\276\313|\">>\365*\276L\310\332\275\000\235x;\237g\010>\001\331Y>\357\027\343\275 \266\260\274\225\323\002>@g\025\273\332\374\272=\013\210V\276r\271\360\275\305D3>\310]\326\275\200\313\367\274B\035\336=|W\227\275\360w\013\276\3658\027>\237:\\>\334|\261\275a+S>\351\223\326\275X5\t\275M\252\345\275\341\3267\276\265\2433>\220;a\274s\342[>\255\244\003>%\004+>\020\230\006\275\261\215\\>\210Uy\275\252\335\261\275\200\032[\274\000\320\304\273xFV\276\007\000=\276\357\232\324\275,\243\230\275pC\226<\026\324\374\275\021A[\276r\n\301=\320\352]<\330\364\233<\000;\231\275\260\332\214\274)8P>JO\252=%R\022>\244\034\355\275G\224\356\275n#\320=q\315M>\000\307\244\274d\005f\275\244\326=\275\371\302<\276+DL\2760\302\242\2752\301\345=@\214\315<\344\337\"\276\004\360K\276\374~\016\275q\271\005>\034{\t=\363\344\350\275`\"\323\275P\232\246\275\316J\243\275\360\347J\275\022x)\276\332\357\213=\322O\334=\371\356\002>B\356\317=\326\371\245=@S\320\275\317\260\002>\352\277\237=\224\">\276)\036\334\275\024\033\207\275Q\334\010>\310Y\351\275\330\205\330\274\243\3226>\245@\020\275\250\265\'\276\266V-\276\345\017<;|T\031=iJ!\275\355\177\344\274\013)\014\275d\327H\275\264\234\032=\262\264/\276\003\001#>\257\272\007\276\032EJ=\264\356\234\275|\210\002\2763\005\"\276\370\")>>\340\032>\301\037\r>\324v\216\276\035\244G\276\224\301\000>\220\264\241=\274\335s=q;\361<\230\230\000>\242q\353\275\266\345\030\275\367\234%>\265\003J>\350\364\377;f\264S>\310\010~\275\177\205X>n\274\n=\363_%\276c\220\034\276h\336P\275U\005\206\275\001\261\345=\355\353C>1.\266\275S\005\361\275h\000\r\276\226\024\221=\300\210(>j\017\003>\264D\017=\"\312\325=#\313\'>\010\206\025=j\202\327=\265tR>\005\017;>;\212\203= \360\305\274\0105\222=\336\235\360=j\226\203\276\241\013\016>\025\024W\276-\014\307\275A\302(\276\350\373\025<\203\216@>\343t\017\276\253\301\n>\273\037\243=\274{\242=\r\220l>~\341<>B[\246=\231JI=\377\326\035\276Zm\357\275S\323\201\275\350\242\301\274\357\2365\276\265\254\223\275\204X\240=\267\225\236=\252\377\254=\220d\035\2760\240y>\200\342\361\275\376.c>\322\245/>\313\372+>\361P=>\253c?\276Wx\r\276\375\365\227\275\3107\350<\264\367\000=t\311\331=\340\252$>m4\256=\327\227M<\323\305b>\266D\030>\314\3027>\257\214\230\275Wl\267=Yk\307\275\'Y\222\274\354f6\276t\303\301=\364\305D=[\177\241\275\rqR\2764\371[=3A\335\275\240\361Q\275\257\277\343=N.C>\272Z#\2766)\203=\264\021*>a\356P>6\347}=\253\221\227\275\320\"+\276\353\2544>\002b9\275\246\367\210=V\3532>6\234\\>\326\2623=\001~:>,\236\322\275\035A4;\'+\302\275V\304\371=\017\361\022>\337\035->r\373\300=\262\234\344=Y\010Z>\354q#\276\2402*<\300\320Q;\323\264\366\275\2342\263\275q\206Z=a!\005\276\000O\275=$\312n\275\254x\242=(\037\010\276\335W\360\275i\211\032>\362\331\262\275S\240\361\275-X\323\273\261M\274;\207 \033>\230\315\377\275\346\243\226=\375Q\013>j\264\364\275\023\211\002\276\013\226\025>\027\217\'\276\023\344%>\204\341^=:m\234=\264\346b=\260\375\034\275\234\371\000>Q.l=;|\300=\025\303\034\276\225\235\221=\262\261\336=\035\352\022\276Q`V>|\311\260\275\237k\305<_\0063>\000\032O;\335\347\033\276]\260j;\0248\022\276\243\020]>&:\036\276\223>\037>\324Fy=\374\221G>\031\213\333\275\357|Y>\327\230\021>\202\325K\276\300\2256<\r\273,>\301E\331\275Ja\006\276;\355$>\256\022\253=\030\332\310<\304\241\017\275\017J8>l\214P=J\2472\276i\215\r>\210!\267<L\021&\275\367\272\033>H1\265<\276\345\245=\351,?>\362\360\370=\320\273-\275a\356<>\234\032Z\275Cj(\276\305\2256>\230\230Y\275\327oW\276N\000\230\275\240J\201\273\n\245\266\275r\356\212=\2208^\275@\253a\274[\330\021>,2X\275\232\201\260\275|\256W\275\235\001;>\341\251\026>n\362\321\275\300\205\024<\226:\256=\264\200\200\275X@\260\274\341iD>\350\355W\275\331\024N>B[\203=\2213\033\276\312s\262=nV3\2764\365\005\275\334\305\006=&\272\030\276\240\372\220\275G\261E\276\300\3520\275\206\312\366=\220h\036\275<\324)\276\361\344#\276\370\252\001\276\365b=>\364h<\275\330\n.>\223X\030>\353+6\276\220\004\021\275\374\334,\275i\372\211>\255w\343=\001\322z>\236\300\013\276\006\0309\276\217\226e=\310\270\030\276\"\250\343=\262Z\327<\353\235t>\273\003i=\252\032>\276\364\235Y\276`n\233\275\316\317\326=\255\364\024\276\005\224!\275M!\034\275\275\005P>~\271v\276\273\374\001>3=\004\274N\016i\276\207I#>\265\277\037>\214\016U=\311\2437\276\232\375p\276\306\213N\276\362\223<\276\004\021\201\276\2016\021>\220\213\315\275\266\224\211=u\2576=\237\227\224\275\344\372\233\275\177\"\351<\006\2350\276\327\347\n\276\273X!=\336\243>=\002n\315\275\022\246\213=\301\333#>\037\244X=\222\215\213\276\356\365X\276|\372\221=\334\034\\=9\321=<=\004\034\276\'W\265=\233\371T>\311\177\201\276\\\t\023>x\342=\276K\3068\276.N;\276\204\014\235;\306\305\224\275\231\376\203\275Zd\310=\002\234\235=\311\302\026>\310G\317:\255\260f>\204\271O=`u\020\276=yI\276\214\310j=W\257\335=\222T\224=\224\035\206>!`\021>}t\372:x\2721\276\325\353\204\276v\362\234=\333\324;>\367\323\203>\267!I\276\010\3775>*\030U\276\314\tL=VJ<>u\334k=E\265\031<\200\t\207>\220\265s<\265x8>\356\013\236=\340s\223\274\216K@=\360\\T>\377%\223=\375\357e\276\033TO\274;\323i<\251v\351=\375\316\225=\n$\202\276\307ID\276TK\t>\'\226\245=\343\205E>\240^n\275\360\261\030\276\002\037\247=\334\213\246<,r\371=S\005\033\276SY:\276\226\263\344=O1=>\036Q,\276\356\313w\276\324D\224=\337\273\230\274\0211i>X\264\266;\370\315`\271\267%\314\275\367\231&\275\367E\037\2769\251\317\275TYd>\371\310\361\275+\302.\276\177mf\276\271\235P\276\307G\'\276\320\204\254\274\211\237\351\275N\203\255\275a\0262\276\336\223\034>\014cQ\276\313\307\375=\"\3451\276\334\257I>\350\204\014\276\017C0>4\266\347=M\021\341=\331\301\017\276\270\207+\276\357\245\312=A\316\237\275r\353\363\275\355(\">\325\307T=f\263\321\275\000~,\276\020S\363\275\277X_>@\221%\276z\325\273\273\355\376=\276\270\033\231=\212\247@>c\213\023>R\021\013\276\267\225\005\275\354\352\002\276F>e\276<\3328>\322\212\223\273\004\210%>\271\305i\276\371\231a\273`\327\357\274}11\276\370?\266\275\033._\276\300\367\324<\273;Y>\264!,\276\302\3210>@sp;\234\366\347=\342\336\264=\256\337l\276\211\367\230\275+\004\013\276\376V\313=\227>\221\275\010\254\242\274Z\330\323\275\220\272\010\274\003:.\276\302\247\252=\022E\320=\362\301\337=\031\276X\276)*Q\2768\014c\275\360i5\276\214\316r\275yN\014>\200\302\307\275\251~\024>]n->\017\215\010>Ha\337\275\300\344\312\273\260?:\274c\207\031>\027b2>\021\206N>\332\277\205=m\016)>\242B\214=\333\224*\276\313W\017>\363\002E\2760\246b\274\374\274W\276|C\270\275\266\260\215=\002\372\361=N;\010\276\246(\352=\030iC\275\312\2078\276~\033\247=\\\3122\2754AA=\374}\r=\326\3034\276\244\377W\276\236\240%\276\360\374\337<\000\351\037;\000\247Q;G\243H>\230\2128\276 f\302\273\326\300\265=\375\372K\276\307\234@>/\342X>\221\2077>CT+>\341T\360\275>\006S\276\356\245\324=l\317V\275h-\343<\366@\230\275D@!\276\3055\204\273\272JW\276)\300&>\347T\022>r\217*=\002\265\200<\254l\356=\322%\317=)G?>\022\034\346\275Q\017\022\275\205\225/\276\025\337\222\275\244\274\031\274U~\001>\024\373\301\275\306\214\236>\016\005\324=u\346\005\276\232w\375\275\242\235\244=\265\t\204>B\272\036>\377\325\033\276C\323\014\276=\032\207>6\031\321=\217\2129\276r{\247=\326\205\312=\200\256G\275w@\331=\030\021\222\276\253\314)\276\333W\213=\232\022\221>\014\220*=9\376\320=\306m+\276O\025\216\274\005\340\r\2769\352S\276*\315\255\273\354\273,>\364v\205\276cmr\276\307&\325=\276\313\223>\\\332\006\276\021\231W>\353\207\306<t\231&>\243\226c\275\270\254\223=\303\265N>\322\211a\275A\314\374\2755|\207\276c17>|\0359>\204K\t>\200+\300=\251:y\275&\236\300=\256\253A\275{c7>\357h\312=\327sH>\314\323@\276]M\357\275\336\276\253\275\014\230\214\275\014#\223\275t\276l\275P\207~>$D\365\275P\245\227<o\342\276\275?\265\t\276\320\036\216=/E->\372\002Y\276\362:\023\275\332\312\236=vq\324<\207S\224=Z\034\325\274]*9>\207\320:;\023\2172\274\010N[\276\026\247M>n\207K=\031FN>h\231\312<\224\222\3039\007s\276\275}&1=\203{\322\275\2240I=Y\226\350=&\371/=\250|D\275\354cT\275\273\363\262=uY\027>\332\352\336<\312L\242=\035\025\376;S\206B>\306\206L\276n|\006<KV\342\275\246E\027\276\314\377\020\2762\006B>\300\307\026\276\267\3235>m\271\032>\027\367P\275\037\177\355\2756H\010\276\036$\235=\345m.>\343\325\035\276A\344\352=\230{\240<q\226\036>\370\254\306\275\213\341=>\236-\325=|\203<\275\230\006\370<\017\356:>`\201T\276\007:\367\275\217\223G>\316\230A\276\202\037\274\275TF.=\037\245\'>\200P\034;rU\266\275\305|1>\266\204\322=\321[1>Pb\007\274t\3263\276E\313O\276@\256\357\275\261\360\000>pK!\275\352-\363=p\340\006<\2307\232<\361\377,>\306\264\201=\030@S\275=LW\276p\265t<\340\336\013\276e\'H\276\223n]>\224d\"=X\362\216\274\375\315Q>\260b%<\316\272\323=P\345\263\275\341\213\371\275\030\340\304<\210@\023\276\213\3265\276\302\2550\276\326\024O\276\021\021;\276\245[\'>\306\221\225=\234\3544=\307\356Q> \232a<g\0247\276r3\336=\035\251\003\276H\221N\276\246\355\214=\020\333\250\275\255\207\">u\220,\276J\237\350\275\240sB\275\233\3436\276\300\255\001<+\275<\276E\031\020\276\261\341,>l,o\275\306V\206\275\004\320\276\275\326\364a\273\350\334E\275\302=\361\275\320\250\207\275\344KA\276,\232#=\205\275\004>I\361/\275\305\374\214\275\325l\360\274\304\013d<`\023\033\276wQ]\276\370\233e> k\355\275\212k#>\343\230\037\276\230\310\033\273\035\211/\276\267\000h>I\266?>\000\245\365<\205\272\023=`\262\366<\317\254.=\374\226\260\275\343\326$\276PvF\276\210\030\031\276_P\027>L\266\004>9v5>RH\245\275\215\222\010\276>>\212=_\021\336<\264lJ=\367\262\030\276\034\373r\274Bg\033\274\231\002#=\236\031=\276n\304\323\275m;\336=\342\230\261\275\244\332\022=+H.\276\027UF\276k2\334\275J\312\261\275Y\315P\276\016N>\276\354rf>s#\222\275\265\353d\274\006\336 \276\004q-\275\230w{\275$\2444\276\'\222!\276\020\005\247=\033\227\302\275\004\331\005>\257O\036\276\274:Y\276a\243\\\276c\013V<]\026|>\240 \221\275He%\275;\342\303\275\327/.=\360C\262\275\323>z>d(\240=\273\"\377\273\340\202x\275j))\276UM\343\275\270\0009\27626\253\273\001\214\341=\253U%\276\352\336+<\270\3343>\260\251E\275\345X@=\017\2078\276G\201\027\2768j\200>\347\346\237=y+\213=\334\340^\275Z\350\030\276\260\256\243=\024\332\021\276\353\212,>\223tg>;\211,\276M\0073>\t\000\211>i/H>\361Pu\275\013&r=\320\303\314=i\0205>F\276\017\276`\257J>7\n >M\013\007\276\230\2761\276b[\005\275\317wz>\010\371\031\275\354\014+><\227\023>\235~\000>\004\0257=\033a\200>3\033\007>>D>>\255\353\020\276jI\374\275\260\323Z<\355\277\017>\206\231\211=x\214\030\276\260\366\245\275xH\351\274\326\371\207=\032:\202=\020\367\035\275\234\2418=\334\200A=\022\357\350\275\241\017\036>4\345P\276\261| >\304SX=+68> \367<\2741Q8\276\037\201=>|\010\201\275\020H\021\275\000\022\234\275l\263\276\275\346\347\r\276DO\373\275\t\372N>\237\217\033>\312?\307=\220\324\345<H\223\300\275\336\226\354\275\221\323(>\360\327}\274\330\333f\275\210B\324<\227+\'>\267\006\002\276\312\341#\276p0\236\274AD\033>7fD\276h\213!\276/D:>&\324\024\276\355\246\030>\263VX>\251\3203\276\005\0146\276\344R}=\242\364\202=\274\365p=\316v\211\275\303E\350\275_\020\341\275\256\372\317=\r\327\037> \277\304\273\305C)>\360\356x<\222\030G\276\302\320\010\276R\236E\276<R\354\275\216\010\332=\330\312\032\276\323\2368>\270\245\020\276Thk\275\\&n=hA\214<\333P\007>\037\372&\276\240B\263;+\035\037>\234e\253\275\234D\177=0\206S\2759\212?>nJ\231=\2628\341\275j\177\275=\004\331\211\275\254}g=\321/2>\211\\\r>n\003X\2769\3663\276\312x,\276s\372P\276PIn\274\030\347\311\274Uy\375\275\301p/\2762\001\222=\202P\211=\215\006K>\024:x=\360\247\300\274j\277\345=\025E\024>70@>\200\025:\276C\023F\276cx\025>\2672=\276V\302V\276\325\263#>82\367<X\200\"\276~\244M\276O\251\376\275\361\352S\276\250\343E\276#AD\276\256\301\326=\254\r\271\275\212\251\314=\027\274\001>\007OZ>E\241\006>D\274H=\'\006%>i&\375\275\225?\030>\010\210\210\274\3026\254=V\006\254\275\302\204=\276\376z\270\275>\t\314=\352y\300=\226\242\354\275A\343\002\276P\010&\274\322\307\305=\265\2065\276\234\\<=\217A\016>\235zX>+\247(\276@(,\275\333Z\">\3045==\242D\376\275\322\206\264=0F\336<CGA>\300\325\375;\332B\332=\177\351\301\275=\236\014>\024\277|\275\223\211\013>\246U\255=\364\256\261\2752\271\007\276P\320\322\274N(\270=\371E\\\276 \262\254\273\211\354\000>\3347P\275\237\0209>\354\200\'\275y{L\276\220\325\361\274\224\002\251\275\305\204-\276\236l\216\275S,V\276\233\330/>\306\210/\276\223\370L\276\211z\025\276\034\272\014=\326\0161\276\200\020\006;\252s\347=\226X\020\276\010:\013\275We\016>\022\235\353\275\200\374\317\273\340\362\216\2755\034C><\370<\276 nH\276{\2645>\034v\020\276\367\004Q>\353\274\005>\256\3362>b/\244\275\304\307[=zZd\270\037|7=\370\271\346\275\362\037\342=h\275\273\275\024\026j\275N\300\317=\304\247c=\262\001[>\000XE=\331\223L\276\266\226\010>z\364\004\276^\230\000\276\325\000\023>m\034\024\275w\320e\2752\265\375={\304\001><W\361\274\364\315 <\331\346 \273L\261J\275\301\024\200>\232\374\221\275\027V\376\275\225pf>\021R >4}<=4\030Q\276\351\353\037=\354M\007=e\234=\276@\265I\276\371\001\211\276=\343\316<d\t0>\376\221\240\273\034$m\276N\326\231\2752G\215=Fz\t>+*\006>\202,\213=p\030Z\275\204Q\275=y\024\371=\006MM\276E!S=E\002%\276\321y.>h\356\230\274\241\261X=\200b\361\272\233l\023>J#\217\275\0369n\276-\343 >\030&\026>x\317\371=?\3368>}\3266>V\263\201>|\034\027=\304\360p=\241]z\276\324\237\330<\352@\354\275\333B\030\276\030\315d\276\300m\365\2733\'\\>\327\200+>a\326:>2\311x>\365M5>\000\306\236\275>\200\014>\016k4\276v\0273\276\030\247+\275\273\377e=\343#=\276\261Ps=,i\343\274\0143\266=\030+\211\276?\237\276\275\236\027\270=ArQ>_\311\'>\327\252\031\276\312WK>\226\265\317=\212\025\326=\367\366\364\275\r\270\010\276\270\035^\275!W\267=\377\3705\276\365\226\341\275(\021\014>\230\2379>\n\223c>\3568\235\275\330E\336\275\240\204\264<\243\212X>\005\262?\276c\331\253\275\220h2\272Ps\213\274\362\300 \276\353\0067>\021\010\035>uY%>\246\006\002\276\320\235\022\275;\277\211\276\217w_>\010\320\335<\253\251X>\334TU\276.\302W=P\322<\274\230W\266\275\252v\333:\260>\334<\375\2379\276\244\365\353=L^\004\276\354\231-\276\306\355\333\275R\037 \276E\033\017>\202\222\374=6Q\003\276\302\257i>\216\023\227\274\337\356\307\275\301U\326\275\340\342\245=@\253G\275\004\241\202>\035\374\t>WO\037>\003!O>\253\367F\275\363\010\243<\220\034\036>Q\030_\274Y\364)>\241\343\030\276^G\361\275x\306w\275\035\346\371=\034\236\002>\312\3704\276\306\366.\276}\033\220\274\314\232\205<\322\231\212=\350\276\003\276\333\341\036\276\344\032\200\275\005\314$>\234\t0\274\006aJ=\334#\024\276L\240P>\222w\005>C\355T>\300\214F\276\031/j\2740\210>=\372f\347\275\200\325?<\006W\006>\023\360:>\240\\!\276K\305Y\272\322[\243==U=\275\366a\241\275\367J9\276\304\221\014\276\016\201\256\275F\334\224\275,\000T\276\203\225\361;%G\312=\331\304\">#h\004>\307\310\'\276Fs\245\275 G\266;\363\027U>\247F\263\275\340\222\303\275\357\243\353=\025\226\265<\224\203q\276\217v?>\375\310I;\365[=\276\302\237.>\220\256\357<\\Q\205\276vf\024\275b\324\263<\312\251\352\274/D\205<\033~\246\272\257C.\276\006@\207\276\210\016?>\370\3079\276\n\016\330=<\246\214=O\025\204>y\204\032>\302\"\003<\370{N\2743\3628\276\264iz>I\237\320=\256\341\204\272\365\002\311\274\314\206\365<\246\203\223\275\326\324\036>}q\230\273d;\225=\375\021\177=\351\203\311\275\200\227\251\275<\363\'\276\013,\202>\366\3175\276\n\201\304<\206%f\275\200\001\274=\253T\005>\341\262\222=\370\213\211>\r\014\337\273#\320\236\275\007\364\214>\2428\266=z=C\276qH\374=\361=\002>CI\363=\267J\t\276\266\234\211=iF\374\275|\332\246<v\036\202\276\037\202\242\2756\336/\276\341\237\033>/;T\275\363\227.>@\364\007\274\037\361x\276\343\237\224<\251\306\320\275\210c\024\276\372XI>H\262\035\275\244\3533\276\307<i\276\332\314F\276we%<\336\242F=\365\212=\275\303\'j>\022O\035\276\271\'K\276\207\217\274\275\270\377\010>\020\216\022\275\364?e\275\226\007`\275\251\250\035\274r\266\312=\236\216\004\276B`\351\274\3760\346\275\323\303\304\275\036\361\225\276\231\204%\275&M\205>5<\035\276\2176\220;\344\215\005\275\310J\204>nT\276=.\354\"\275\200g(;\3002\346\274A5\245\274\337\276\371=\226+\301=\310\323X>\355\036T>3\244\254=]\367C\276\335l\213=\234\272\033\276\327\204\237=.\024}>\031\326\242=>\271\340\274\251L;\276\205\0005>K\"R>\024\031\004\276\240|>=\3027\306\275\307\246U>\335\330\254=\244\276\006>|F\023=#U:>\376\373$\276\366\253\263=j\2050\275X<&<\264\0165\274\300\1773>\230/\205\276\300\334\243\274/\377\260\275\214\215S=\365j\037=8\215\324=\257\2010\276O^\206>A\236\021\276U\222c>\262\023R>W\362N\276\032l_>\014\261\243=PH\320\274\007\326\235\274\276A\026\276P\226\244\274\275\367\343=K\204\203\276\236M\254\275\261D\035\275\020+Q>\216\227\355\274f\251\232\275\213\271$>I\366\253=gW/\276 \205\356=! t\275\365\235\226\274\277\211\212>\000/\224\273\247V\276=\025\276\360\275eu\221\276\007\341\344=Z\301\007\276\000\t%\275\361)\020>\177\211P>\3139\007=\215\367)>\262 &>\255\'?>\034\2259\275\357\033>>\376X\263\275Q\337^>F\017\241=\032\211\240=\223\032\353=\356\337\246=U<\276\273\013 \">6g8\276~\005\312\275Z\315\003\276|\016\356=/AR\276w\363\037\276\374l\306=\207\006\310\275\177c\272\275\304j%\275_~\317\274\032N(>\215\217\013>DD5=\240T\371\274\367\260\035>\354~\252; \373\354\274\262^\030\276Nw@>\331\0352>j\240\230=\007 \213<\200\327y\273\225j\253<Z\201\332<A\327w\275\3006\217=\325\025\">\275\010\253\275\213\0145>Z\3112>\030\014=>e\373K\276:9q\275\303\303\010\276\341\025:>\005\334\327=l\271\373=\311a\"<T\373\236<y\247\027> \220\264\273\206\202m>\310\0307\276a\210\346=\253\200\335\275\027~\002>6?#\276G\367%=Hh\321\274\224\307\002\276\003t\321\275\243\016.>\013\035\214=\010\221\024\276\321\215\234\275\256\222\224\275\"\232\310\275\201\006h\274\034\231\247=\376\014\271\275\3411Q>\263W5>\223ft<\3222\025\276\000K\350\274\313k\331\275w\227]\276~\343\377=\377G\231=\314u\303=F\206\333<\201H\220=6\235\t\276\244\231\236<b\017\277=&\026\t>\210k\033=\361\363\021\276\217\300\240=\330\230J\274\r2\212>\324\327\367=a\313\002>\256\274\261\274\265P\325<\340\005 \2757a$\275\255\326S\275\002|\201=\343\246f\276\021\032\214=\003\334\033>\230\342U\276\262\002\302=q\r\022>\3768\217=\321\357\254:\2746\340\275C\327\354;\366r\021>\206\224\234=\020\302\206=\242Ss>\204\211\271\275\2006\352<qcY>O\234\265\275o\313=\276\374K4>\300\274w;\225\267\020\276\312\260\254=Q7D=\234\222\007>i\271D\276\211i\026>\0003e\276}N4>\251\362\206=\310\301\024\275\340X\274\273\354:\032=\\\013o\275\327\003=>%\340V>?KD>\3235\321\275(:\200\274\313\322\006\276 \344/\276\314\277T\275\270\241\204<\200\021\363:\020\360\266\274uq>>\355\365P>|}\264\275\010\265\000\276\0107\030\275\274\207;\275n\322\256\275\275L\302\2750\261\275\274L\2345=\220\363\276<R\304\300\2754\030\010\276\250\216/\275\371\357\n>\244\227A\276\265\326&\276y\353D>\376\334\221=\240\237e\274H\365#\275\nkF\276\262\225I\276\016Q\376\275K\221\374\275\360\313\'\275\210\272Q\276x\250\032\275L\352$=\200\226\277;\023W:\276\013\251>>!\241V>\334\360*=(\266q\275\375\204\327\275\342\312\212\275\030@9\275\205MI>\020\024\355\275\000\003\203\274\352\223\270\275\323\201\002\276\360\3653\276\357j\323\275\002\226\013\276\340fI\276X\020\375<dH5\276\330\376\326<\037 />Rs\217\275\275:[>`\217\351<\252\200\372=\005;T>\367\233\014>\222.\315=\372q\256=\\\276I=\"\207\230=\353\234\003>\024\233P\275\360[@\276!}!>\322\033\376\275z%\325=\307%\356\275\304\357F\275\341$A\2766\350\242=\266bD\276Tk\r=\006\300\233=\305\351B>\224\216j=\365C\031\276\332G\344=9tG>W\2231>\030Q\305<|\274e\275H\243\351\274\000\245r<p\332\216\275`\260;\276\221\021\034\276\023*\035>\322\327\371=\313O\021>K\003\017>`\'\211\2752\\\270\275\375=\014>\024}\357\275^\3327\276\306q\202=r;\200=\374\365\022\275J\332\373=\r\027I>\320?\266<\326[\030\276\230\232/\276%*\360\275\263G/>\356\350\342=Z\326\216\275V\320\360=\2762\214\275D|\273\275\201\333\035>\326nW\276\2402U=\005L\373\275\347`\270=\202`/>J!\277\274\304~\350=\030\026\210\275\307\337\234\275\300\037\000\276\324+A=G\350C\276\360\236\250\274\325\235W\275M\307\035\275\211\243\230\275\322\360 <biB\2762\345\217=\356\367\n=\353*\304\275lfw\275\027\237\002\276(\317 \276WN@>\333\217\026\276g|E>\207\030\301\275\251)a=\272\306\001\276\014*\343\275 \240\345\275F\271T>\236\365\031<;\214Z>\370\230\213=$h\226\275jo\210\275?c\">\003\016\000>u\\5\276\216\312\331\274#\213\370=F\346\005>\2505\214\276=\371.>\232p\272\275\033m\235\275\026\373f>\'\321V\276\022\021\357\275\t\022[>\366\210\304=ZO\022\276\221\222\226=L\344A\275!*I\276\205p\260<e8\006>\360\354@\275\206\275\336\273u\212m=-9\315\274\251\363L\276\2050\266=\016\014\233=t\313\342\275\332\226\202=P\227I\274^\364\204\275\006a\376=6\305\214=p\354B\275@\255x\275G\363\367\275\215h[>\264\227*=\300<s\274S\3203>\351\306\353\275\242\0348\276~\024\213=L\214+=\025\336#>\032\022\244=\262k\311=\317\017E>\036\270\323\275\354\2136\276\215\226\030>\316\021-\276Z\311\237=t\252\033\276\030\323\326\274\360\342$\275D\371\027\275n\234\255=\315\017-\276\260\3164<\322\304\216=\270hL\275\272[\213=\362\222\272=AzN>d\351d\275x\036Y\276\342\001\302=\301\313\377\275\034`*\276 kp\274\344\001G\275\304\311f\275`\221\027<J\325$\276\354\270\\\276\346fH\276\261\031\274\275p{\235\274kE&\276\237\323L>\374\367;=H\244\326\275j\346\211=\237\277;>\361&D>\3004\275;\205\351$>\245\223M\276:\205\206=\374\010#\276v\331\311=\243\372\364\2758\277\231<\216\030\320=\272\264\252\275rU\254=\341\003\037>%\025\010>\306u\341=\351j\346\275\\0\356\275\344pG=@\256\"\273\3368\367=\200x\201\272\020\021d<P\240\254\274\0049\362\275$\354q=\3515&>\357\013Q>\2347=\275\005\207+\276\204j~\275\330%\345<iQ]\276\020\325\250<t\332X\275\350v3\276D\273\020\275\244\304?=e\016Y>6\305\242=\016\377\270\2757\2142><\245\007=\320\276$\276@\375F\273\275\301\r>\256{\315\275\303\201\034>\310Gp\275\026\351\034\276\025\237\003>\232?\364\275V\362\346=\306\247\254=\347\261E\276j\233\354\275\003_$>\346\213\000\276\340(?\2768_6\275H\227\255\275\265k\304\275\273\264+>\2008\224\275\354\215j=\300\344\371<5\216]>x\300\333\275\333\236:>\307\361\304\275\214k\324;\330\345N\276\274Q\005>W\372\324\275U\237\023>\23242<\371_\003>\356\363)>\277\325J>\210\357\323<\0100\312\272dCg\275&;\331=\252\225\003>\224\321^\274+\357x>T\234\006\275P\211\032\275\320\235\253=\320L\210\275\367\215S=\024\tc\275\0356?>\375Nw\276F4\033\276KD\334\275\216\343|\276\364\017#=\220\013\237<F\020_=\027\353N>L8\036\276\353Eq>Td\247\275\334\260;>B\335Z\276\014>\366\274C\264\350<F\343\304\275\207\326\266\274\350w\256\275\3025O>qR\213\275\317\253\234\274\365\2174>\021e(=\303\253\016>E0C\276K9&>\341aR>\301\006\036\276\\\253x\276~\303\201\275\0208/>\342\322\331:\002B\326<\230\366o\275\343\036\006\276\342 !\276\r&\322<\007\264\265\275n\251\217\2752l\336=\004\255&>\217\272\030=\321\232#>R\215\237<AO8>\376\221\216=\246\235\200\276I\247H>\022\1774\275\221\2643>\314\246\n=<\2250=\022<\241=Ph6\274H\302\213\275#\376\310\275m\3143>\326\013\345=\313\372)\276}\254=>\203\216\321\275\212\3479<\213\276\206\276?v$>\252\222\245=\325R\000\276\230\263\016=T\235\343=\301\254\207:\016\001y>\276\314\213\276\016?7\276\232\035\225\273E\372<>\366s\024\276\202\241g>\316\244\\=\261\013\362=m\370\016\276/\324\027>\245\324\032>#$y=S\210x\275\270\276\317=Q[\323=3\213\023\275\312\026W>\231\351\340=2&\305=\350\263\000\276\336\372\224=\306\241\276<\3049\315=8;\200<mIH=!\177\">\302\310\014\276\274\300\212\275\224\334C>]w\203\275D\301L\275\334\205\264\275An\273=Lz)\276\331%\336\273\262\223\313=%{K\276\316{\374\275e\305\013\276o\225K\276\214\253X\276$G4=\304Xx\275\326!\326=\270~\323\274\301\002I\276F\026\002\276\220G>\274xA\267\274\310aT\275\200\032\371\272\177\355\273\275op\021>\020\377\010\276\200^\312\2744fY=J\037>\276\324\261\206\275t\366\265\275J\024\"\276qk\004\276\316\030\322=\334I\251\275\007\256\033>\346q\206=\271\031\036\276 D\311\273HS\265\274E(O\276\232P%\276\002\036\344=jo\353=\001\377J\276+\007\033>)\210A>3\224\033>\020\211h\275\231e!>\313(\">\360`p<`\357V<r\026\303=>;\034\276&\227\t\276\350\337\030\276\221d\036>\234\316\277\275\265\020\343\275@l\n\2740l\n\276\345\216\014\276\210\323\277\274\305\222/>+;\'>aOC>\364\322\206\275\3244.\276\354X<\276\013z\031>\252\200\314\2754U\"\2757\362<>\202\037\031>5+4\276\364h>\275>\222\345=\271\344\324=\256I\274=\330\355\215;\036~\220>\022F\376=\374\231\361\275;\177U\275i\365\276\275=\275\323=\001\334\244=&\022c\276q\023\262=\362J\222=Z\025m>\374\302;>;ce\275\307D(\276o\301\204\275RF\322=%\372S\276\032L\244=\211\237E=\274P\260=\200\315\254\275*\021E\275\006J\035<_\230\337\275P\250,>%\357\252\275\230\373->6\200N\274\231|\245\275\217\037\353\273\2425n>\255UL>\215\3450>\207>\276\275\313\351\010>\273\353\326\275\264\010\t\275\341G\220\275\204;\r\276\247\334R>\032\312\213\275j\357\024>\236j\r\275\236Z\037\276\022#\003\276\310\023\267\2749\"&\276\314R\351=\321\023s=\210\240\032>f\030E\274\241\241\233<\306N+>\\\222\244\275\'\351;\276\212\376\032\276\357o\341\275\247\351R>@\207\030\273\301\036\001>+\3461>:\037\206\275\000~\021:/\262\006>\352\370\253\275\330\353\240<\254\271\034=x\250\001\276p(\"\275JYA\276]\365V>\314\343b=\\\002T\275\216\342\201\275\242\325\347=4:\000=\313\007J>J\263A\276Z\021\361=Dde\275\3346c=\334\2105\276\007E\000>@\r\022\276D\315:\275>^\025\276\026\035\003\276\244\237T=\305#\013>\334\365Z\276~Y\256=\236\353\274=\320&\261\274\354ne=\203\346H>\340\0314<x<\005\275\326\234\277=,\2335=\375\2756\276\340\034\030\276\337\270\300\275H\367\032\276\266x\320=[\034 >\222\276\240=$S\004\276\200\374A\273@Y\023\276\256\251\"\276\365\247Z>\360/\317\274\200=\376\274\0250X>\372\245\235\275@\233$<!\tQ\276\252z\244=\255\221_>\356\350\235<\377\222\216>\26573\275Q\370\303=m#b>\317\317\362\275\324\311 \276\026+\311=\267\316,>r\025H>,2\370\275\260\232{=V%\302\274[|q\275^\200>>\302\034\244>\252\016\240=\274{)\276T\"p\275\333`C>\3307\203>:h\t=Zt\353\275\2551\035>2\2025=\013A\025>\3751:\275\371\307\214>s\272\243\275}\247D>\317\354F>c\036W\276o\270\342\275\247\031L\276l;9>\356\2115>\327@\315\275\316\334\274\275e\275\232\274g:\204>b\3222\276\311d\003>V\313%>\331\364i\276\353mq\276\321\304m>|\2059>\275\230\350\275R\235<\276\035\362&>\354\254\334\274\251\267#>\307@X=O\215?\276Z]m\276\326\361I>\237C\222\275\355\256\375\274\253L]>=-\306<A\324\025\276\215\2708\276\250s\010>\2076<>\033\305C>\363\363\210>\372\351X\275\321\215W\276\367X\213\275Q@\206>\253Z \276\016>\255\275\356\304\223<=Tp<\304\022\314\2751\3323=Y\305\250:\257\226\032\276\351ER<\271\240e\275\017?&;\237R\257\275\270TG\276y\227n\275Up\220\275VQr\276\310\324\364\275\026\346>>\365\251\343=\246\336(\274f\206G>`\372g>\215\t\304\275\200\333q;`\272q>Y\371\034<\312\373,>$K\374=\354\276\227>\021l\010>M\264\260\274}lW>\251\253\222>#\245\003>\327\202\267=\002\241:\276\370\005\215>\237\264\230=_\255\211<\'Yt\276\005\316_>S\235A>\336\331\006>O\220\024=\t\231\006\274\312\212\234\275ek\"=\372\342`\276Se,>N57>it\263=\217\233\030>6\004\244<3S\020\274\354\205\313\275\360\224s=L7\230=ez\'>\344H\022=\347ys\275~\272\035>\243\017\350\275#\037\336=\265\352n>\325\255\"\276\3615Z>\375\270\375\275\374E\\>,\035{=\332-\367\275)q\203\275\001q\'\276pd)>\003~\001>\220R\330=\022~\020\276R\000\226=;\224\216>\022!$\275\240\322_=3\265\336\273\324\320[>\207\340]>\241\262\251=\246\027\n\275V:\321\275\220\307/>\310\"\t==Q\033\2746\2046\276\026\003i\276;\345G>\233\253\027\276\366\217\'>\337\341L>\000`\217\275\312\270\027\276\315_\276\275\241\031\260\273\273\330\224=\243\335\000\276\325\3140>Z\006\356\274\336\275\211=0\310v\275?\215X>/\267[\276X\027H>\206?c=\244##=|*\\>\247\351\014\276w\263*\275\214\302V=O\022\227=pp\031\276p\342\271=\235\344\017\276\322g%\276\"n\026\276\256\317\261=\257\370\027=C\311\'\276\031G<>\006\350\356<\342\204\254\275\247p\336\274\305\031\206\275\213F\027>\230\276\366<\260\210.\276\013E\035>\340\236\307\273\352\033\363\275\371\007\267=\246e\r>w\3071=(%\'\2766L#\276\264\217v\275\217\272=\276\231(\311=G\361\003\276\324\371\327\275A\016\344=\207\335?\276\217\301\256=\222\022\036>3\021D\2764\354Q\275#>6>\377\275\334\275*2@>\3308\032>6\354\000\276\000G%>*@ \276\256\344\224\275\035\231J\275U\276?>j\342+<)\nl\275u3\220\273\327\'V\276$\n\210\275\215\3446=\003\215\021\276\302\332~\275u\004v>\256\300R\276D\207\037\275\255]\260<\036pR\276\204\371\232\275i\256+\276\326\340\023\276\\\355i\276\350_X\275\366\265\003>@\003\230\273\243\037\264=%L\257=\026\007\016\275\341=\033>\347\340\017=\345\rz>yG\224\275\252\004\025\2742\362^>\207\365\346\275l\342u>\337\203\020\276\345\222\226\275\234eK=z\017\n>\301\rI>*pJ\2760\362\221=\237r\207\275\263\364h>\177\355\013>\210cF\276\303\230f\2767\203\027\276\230l\213\274\276\212\360<4\013,=\022+#\276\031Qa<\345\342\326=\272\007\024\276\234\223D\275\322\211\005>wB\243\2758\346\034\276\245\345\317\275H\373\204\273n#+\276\315\354\347<\373\335\373\274\2322\006>q\370\252\275\n\222\004>^pU=|y6\273\257\305\037>\030\221\312=\027\232\214=\351D\225\275\336\312\201\275@%\216\275mR\017\276/\227\224=)\215\020>\036U\037\276\177F3\276\332[\033\276\004\351_\275\031RM\2766\301\207\274f\332\020\274\252\235d\275\221\351X\275q\025\316\2755by>g\"4\276\027\022\236\275tZ%>E\021\330\2759\031\014>\256J\354=\037V\037> \024w<?\257\314\275\304\247Z\275ME\n>\336\200\377=\222y3\276\317\341Z>QwX>\312;\005\276\346\321\235=B\357\243=\340]\340\273\025\232N>4\263\002\276\336S\315=\332\353\231=V\311\014\276\013k2>\3523\375=3\001/>:R\225\275J3\335\275\360{><\000Da\274\032+\313\275v\312\243=\333w/>_\366\001>\361\265\'>|\1777\275\325\\A>i\277P>\2055\322\275Y\313\365\275\270\206*\275\300\300\357\274\206\'\205=\300\026\000\276\341\206,>\000\376$<\020_\270\275\350B\230\275\355\310\326\275\302r\213\275\367\342\021>\373\010<\276t@\023=\335\027\000>\211\326$>Ql\033>\364o<=\3619E>\352_\231=\n\265\362=\276\257\305=\010\3107\276\340\201\010\274 \324@\274\024\341E=6\343\242=\310\024\226\274\345l\217=):K>;\206o\275\253j\"\276\244@\033\276~ \231=\343\030\247\274\372b\t\276\237\264\024>\227\320\021>m\222\017\276\270\356N\276\320,r\275q\231R\276\021\006M\276E\307\035>\007\227\243\274\350m\204\275\211\004\304\275\306\010\323=<\376\033>\242\223/\276\363\002\363=\312\177\251\275F\325\223\275\031\265\034\276\2101\237\274\360V\026>\022\207\020>\r\344\263\275|6\017\275Y0\345<U\241\222<y\016\032>\333\261\001>R\251\023>\334\256\364\274\321\262\010\276\030b\200\274\275Y(\276\206\211\323\275\236\216B\274x\010\002\276\277\337\353=O^9=\3335\027=i\230\303\274\214\275\342\275\313DO>\2621\363=\231\227\271=\001\340L=wq\024\276\330E\006=\266#\360\275U!\310<\232\261\250\275Ik}\275\010\215\345<\301_\177<\335=#\276\003\344a>\361\026\r\2766\347T\276\003\347:=$+$\276\007\327\025=8\005\201>\025\225\352=\367u\262\274\333\232b>GE+>\250y\241\274\224\301\327=\305\273X>\010b\210\274c\331;\276\213\323\021>l\236\034>\006\026>=\300\304\014\275\000\322Z\272K\226f\275\205\301\325\275~B\177>\004S\003>\217L\241\274t\354\264\275\"\231\223=\023IB\274\314\314\211>\240\272.=\277\306\024>\323\177E>\3407F<q\277\307\275\327\014 \276\336\315.>\035\007\213\276\327<\210=Y\222K\275d\'\"=\007\361L\276\320\342\r>\004\370\231=i17\274kO\374\275T\240\037=\255\030\t=\202\003\326\274\021\263\200\274\352F\212>pl\220\275$\343?\2769\001\205<\244N9>\226\222F=O:\221=\2368\267=\017h\203=\025\341X\275,\356\'\276N\222\302\273\226^ >\220E\022\274wYb>~\013\376\275\322\365\270\275Iw\316\273\201^=\276L\305\254=\340q\216\275`fM>\215\325~=\361\202B>N\222\201;teK\275T!-=\242\252\323=\361I\037>C3\364\275V;1>\266e\n\276\241\016`\276@\351\267\274\252\213\232=lL\005>\324\305\200\275U\275\205>\270I\300=:\n\002>\367D\214\275\261h\000>\342\320X>\334\225R>\\\"\037\276\237y\227\275\235ae>kv\354\275_\373\242\275\236\204\347\274OK$\275\215\210\025\276\354\312\272;XR[<\205S\264<\037\303K\276+\314D>q\233&\275\243[h\276\200Sk>\356<\007=\336>\350\274\032y\246\275z$\201>p5\250=\020\0261\276\274\2344\276_\314\253=\276N\245=/\035\">\320/#=\350I\023<6W\016>5G\r>\250\243\032\276B\371\357\275\177\262&>0\261\032>\2249\342=\026~l\275\332\302\\=\355\370J>>\267<\276o.\252\275T\341)>Y\335\002=q7\240\275\"\230+>\316H\377\275\303\270\007>\260~\033\275\233\310\201==S\002>\206\205A=\2128\213>?\022m>\303\036\026>\005\223{=\260\342\355\275\036\334\210\2762\014;\276~\003\030=|#a>\352\231Y\276\361\321\225\275\326\257\206\275\300%w>?WK\273p\022\220\275U\376\204>\330\375\026>\345X)>\272\314\021=(\243\224=\020\265\232<1a\256\275\365\2634>\274!j\2768\236Z\275\344\326\212=F^\332=\325U\013>\312\372\t\276~\235\334\275@\3217\276\252\315~=\357\206\334=\252\320\002\276Z\203\235\275H\225\347<\262hI>\324\024\364=\026.q\276\225y%\273\370\2617>p\203\205<\327\003\003>g\320\275\275QI\355=\010\212/\276\310\177\r\276\343K,=u9i\275\247UW>\216\2045>\0343\316<b\375\352=^;\270<\306\271E>\237\252\321\272\t\'\373<\321\354v\275D\\@>\220\0254\275\345X\024\276i\033 \276\320\376\341\274Y\377U>[\236\203<\225\023^\274S\202\034\276\351z\"\276`V.\274SVI\275Nj\300=\363\021\037=e\333\213>\340\310Y\276\377Q\276\275\305\3146\276$\217~\2752\202\210>\362\370$\276T\3107>\375\010h>\0005\031:s\341\023>\1770*\276D`\026\276x4\370=&\327\375=\262\230\263\275)\324B>e\333\034=\207\240\246\2755\022h\276\003\213f=\303\273\335\275<\266V\275Y\t\021\274\263\356\374<\322\001\201>\214=A>\345\007M>:\216(>\247t\344\275d\0371;\317\t\037\274\277\263\330=\314v$\275\326\341j=h\220Z=f\361G\276\337V\217=t1z\276\320h\236\274>}\027>8bT\276&\230C\276h(\002>v\345\005\276z\032\326\275\323\273\000\275d\230t\275`\024\034\274\007\026|\275\256\250/>4\230\010=\017\035A\276>\372\226;p\027e<\344\334D\275g\307\344\275\375\220\246=\253k6>\251O`\276`\312\'\274\326\322\217\275j#\310\275W\371\255\273\244\347\355<\007\037\331\275f~`>\035\020\216=\246\232\232\275\203\034]\274@\206.>\001\225\203>{\232r\275OlZ>\207#\007>z\251\305\2755\361\017=x\332\274\273J*\202\276;kP>\316S\352=\324\3513\276\272\235\365\2754\303*=\213\343\211\275\201|h>\031\334\247=\236\355\240\275\371?v=\212)\311=&\223>\275@\001\323\274\\u\013=\227\245\260=iU[>\010\356\t\276z\327T\276*\255\333\275F\2749\275n\304\361=\260\"\253<Jm\242=\204r<\276\362\221\013\275P5\300=:u\203=\005GW\275H\254,>\207j.=\222w\237\275\362\262/> \033(>\032_6>\371\264c>g4)\275\346\263\035\276\322\3459>\241\005b\275\342>\377=\370\250\\=\344\0168>\031pn>L;\r\276\352\263Q\276\240\230j\276G^\352=\024b[=Q/6\276\251\3173\276\372:`>]Y\220\273} \032\276\250>f>l\021\006\275UPt<(\263\016>LV\016\274\246Z\273\275q\367%>\263\2447:\311T\337<%\037\021\276\201L\206\2748\210\n>P\313\342\275WY\t>\365\006\352<\362\365\372\273\010\2525>\367D\366=6~\260=\371\366*\276$kl>]\256\344=\021\363\023\272\240\344 <i\0230\276\207\233Z>\337=X>&9E>\\ai\2750PN\276\316\002\353<\036\"F>LDs=\306N\352\275\371o\270\275WLJ\276\327\025\014\276\232\317\203\274\275o\030>\333\334\022>\000\220q\275\361\340h\276\204\360`>x\0265\274\364\335\031\275\336\274\231=\210<\303\275B\037\344=\334\270\027\275\341\316\324\275\0007\304\272\347x|\274f\315.\276u\363\356=1T?=\363\254\000\276\372\032\241=\262\347\205>@\374\000\275\350\360\250=#+\375\275\3652\214\275\203\263<\276\022\206q\276\232\251\355=\324\211<> <t\275=\304\023\276=S\336\275\035\2708\276M\315\021>\227.h\274h\276d\276\\\335i>6U<=9NS\276*%\024=\203\002\310=\214\022\274\275\241\361D\276`\354L\275\021\267\177\275{\341\305=\311\005\304=2\020\351=\247\304\213<l\310\'>\0000\362\273\000\373\032\275\246\033\027=\322\000a\276i\262\030>\332\006\203=\304<x=\265\207\201>u\314\013\276\260F\332\273#\322\022>v\265\037\276\310\367U>\227bz\275/<\353\275,\310/\276\013\213\017=B\311\026\276$\221\320\275O\302\014\276K\"\347\275R\017>=bYY>:Tw=\312\335\271\275~\307\262\275\243\323Q\274\342\307\301=\020\236\224\275\201\033\007>\356$\262;4\t\313\274\217\330\037\276\206v\234\275Z\004\003\276\236A\261=\204\033\031>\333\035\263=\r\230&\276\212\031\303=\311\245\017\276\222k\323\275\246\201\021=JF\350=\027\200]>\216\270a>8R\272\275\020\215\233<\323!T>v\235\037\275\307\373>>\224~\023\276\355%\255=o\022\364=d\2645\275\032K<\276\310$i\276k\366\r>\261\2663>\330<\326<\236\2653>8\277\344<7\355+=\212\306\017\276\261\3174\276\347\177\n>\334o\365\275\245/\010\276\014:n=P\020C\274\257\263\000\276\225 \022\276,\317:=U\332\364=\322\201%\276\233f9\275\264&/\276,W9\276|\377\242\275\033O=\276U\352~>\300\332*>\334\027\237\275l\316~>\035\351C\276\327&\363<L\321\020\276>\370t>\346\331%\276\322\367c\276\244\301\t>/\3355>M\310\005\276\2228J=\323\200\030>9\273A\276\344\250\214\274<\273h\274\315\211\234=\346j\246\275WC9=]\204b>\373q\211=\313r\313<\333\300\t>\035lK>\201\005\001>\347\310A>\315\350\326<\250\370\261\275X\325\233\274\337n\022>\262E\020\276\026a\036=\377g\231<\254\236-\276\333\346~\274j\3240>\261\335X>P&\010\276(\252\027>b0\333\275N3^=\267Tx>$\323\201\273\270Xy\275\375:0>\262\307\273=fJ\361\275k8P>\020\317!\276\216BU>\267\2346\276\255\335\226\274[\223-\275\311\0006\275x\276\001\276\344.j\275\005\347\303=\036\016\207\274\311\327\027>\273c\022>\260?V\276\020z \276Y\315\036>J\352\260\275%a\026>\2408\353=aP\275=G\347\300\275\034Q\375<\3147\360\275V)5\276\252\370A\276\207\261\324\274\206\355\224=\302\240\n\276H\372\366\275\016~\021<\207\315\360=\3751w=\243\2429\276\377n\237=\332a\356=b\031Y>\2034m;Z\217e=\t\360\320\275\320L&>1GL>\000a\206=^\342\333\275\346= =\201|Z\276\263\355\320\275\377\301\255=\005)\177> \372H>\330\356R>\2461\206<\337Z\211\274\3625\000>\223\0257\275\321,?>\230ZU>\t\223\t<l\224;\275v\211K\275\365;\031>\202\332\276=\234\304N\276\377\327\031\276F\335K\276#\276\004>\016\242\316=\313\320\252=p\021B\275\343_\217\275\253zF\276\370\304b>E:\010\276\230b\177> \237\311\273\261$\036\276\214\3460>\226\334\001\276\024\320W\276\236\314\362=\264lm=iB5\276\240\221;<I\032A\276\343\211\014>\2610\002>/\347#>\307-\033>\216\360\244\275\217wF\276\350;\265\274\2260\231=pD\267\275`v\274\274\036\260\325\275\001\230\337\275q\336\016>\2102\n\276\000\3341\271\016r\035\276\363\265;\276\017\253\313\275@\253\223\275\255@*>\252\254R\276\223\0218>}\365\013>\361_W>\025\n\t>C\021T>\013\253\027>\352{\373=L\2759=\260\322\263\275\213\231+\276\237#V>\233z[\2764\351Z\275\372\215\205\275t\233&\276e\201\306\275U\376\035>|k\241\275_\341\014\276\030y\275<L\202\351\275ZN\230=\002\236\256\275\030\256T\275\332\307\235=K\214\006\276i\2376>\032z\027\276\264\3561=1\250H>j\337\257\275\033\013[>2\220\246=\036\262\t\276f\242N\276\372\253\302=|W&\276\217\367=>\200]\307;\312\363T>\331PF>M\016{\276\263\371\203\275\024\372\"=)\200U>\327j\232\275 \032\226\275IvS\276\352N\237=\3479\002>\346\312\277=#\266->\317?\201=\\\372\332\275\013U\265\275N}\n\276D(l=!\261C\276\005n\323\275=\365H\276\260\246\026>\225Q \276\231\224\337\275\205,N=d\322-=\220\252\216=\262$7\275%h\276=\263\247\215>\000\300a:\331Y\234\275;\365D=\354$\013\275\\\0318>\312\242\226<\306r\003\276a\220%\276\206\203\260=\332\262W\276\"}4\275\242\001\275\275\345f\014\276\367@O\274}\241)>\326\030I\276\361\347b=E\357\316\275(\364\r\2764\217:\276\222\321\005>@\263x\276\263\000\030\276\0250\003\276\265=\332\275\035\325\032>\026r\261=\334\316\225\274\374\002g\275T\234i\275\231\374K>\213KG=\306U\331=XD\004\275\216\001\024\274\344\247\252\272\036\274\316\275\347S<>\233<:\276\211qe>v\202\241;\257\314\202=\357\311\031\276\266n@>\267\037\034>\230\'\246<\221\354\020>,\262y;~\032\\>\353\220\241=\024\004\002\276R\362\274\275?\033[\2756\204\230\275\220\276\204\275\303\220\272=f=\352=\177\373\002>\322|\027>\350\260O\275\370\010\206=m\332\352\275\21761>\341\320\266=\371\337\\>\243\036f=\314\337\370\275u\334\211\275)\310\325\275Z\364\036=\r\343.\276\245\340\346<\3029\002\276\364\374\030\276Z.\332\274GN\034>%\211\003\276\032\346\204>\346\033z\275k,U<7e,\276>3\271=\276\327\247=\0006\247:\365\303\210<|\215\013=\304\322;\275\303LL\276\334\237\221\275\004\033+\2758\322)\276\365\226#>5\353\030\276\301{l>)t\323=\377\205\t\276V\033\034>\355\302\022\276"
      }
    }
  }
}
node {
  name: "dense_1/bias"
  op: "Const"
  attr {
    key: "dtype"
    value {
      type: DT_FLOAT
    }
  }
  attr {
    key: "value"
    value {
      tensor {
        dtype: DT_FLOAT
        tensor_shape {
          dim {
            size: 64
          }
        }
        tensor_content: "\224\013\321<j\204\254\273W\265\214=AG\351<\266r\335\273\261\233\352<o\312\327<\007jN\273\000\000\000\000?\247\375\273\212z\220=\000\000\000\000a)\363\273\027\262\237\2749-\035<\360\2474= \357\231=f\332_\274\201i%\272\000\000\000\000\013\346\250=\203\312\241; \307\327\272],\214<\020\325\027=)\255#=\230?\267<\360\244\234=\345D\352<Qq\337\273\000\000\000\000\374n\371\273\201\331<<(\324n\274\327f\326\274\307\310\305=&5\002=\033\271{\273\363\n\251\273\265a\275=\331\243\214=\206%\265<=q\005\274\n\264.=\311\316\367\2742\002u<\246\215\213\274\237\364Z=\000\000\000\000m\340\247\273\225\343c;eY\207=\010\014\251\273\323\310\257\2736\004\010\274S\035)<\005\t\251\273\333[\356:\324|\254\273*\034w=\253\255\245\274\240\212\204=\300\241\257\273\3124\264="
      }
    }
  }
}
node {
  name: "dense_1/MatMul/ReadVariableOp"
  op: "Identity"
  input: "dense_1/kernel"
  attr {
    key: "T"
    value {
      type: DT_FLOAT
    }
  }
}
node {
  name: "dense_1/MatMul"
  op: "MatMul"
  input: "dense/Relu"
  input: "dense_1/MatMul/ReadVariableOp"
  attr {
    key: "T"
    value {
      type: DT_FLOAT
    }
  }
  attr {
    key: "transpose_a"
    value {
      b: false
    }
  }
  attr {
    key: "transpose_b"
    value {
      b: false
    }
  }
}
node {
  name: "dense_1/BiasAdd/ReadVariableOp"
  op: "Identity"
  input: "dense_1/bias"
  attr {
    key: "T"
    value {
      type: DT_FLOAT
    }
  }
}
node {
  name: "dense_1/BiasAdd"
  op: "BiasAdd"
  input: "dense_1/MatMul"
  input: "dense_1/BiasAdd/ReadVariableOp"
  attr {
    key: "T"
    value {
      type: DT_FLOAT
    }
  }
  attr {
    key: "data_format"
    value {
      s: "NHWC"
    }
  }
}
node {
  name: "dense_1/Relu"
  op: "Relu"
  input: "dense_1/BiasAdd"
  attr {
    key: "T"
    value {
      type: DT_FLOAT
    }
  }
}
node {
  name: "dense_2/kernel"
  op: "Const"
  attr {
    key: "dtype"
    value {
      type: DT_FLOAT
    }
  }
  attr {
    key: "value"
    value {
      tensor {
        dtype: DT_FLOAT
        tensor_shape {
          dim {
            size: 64
          }
          dim {
            size: 64
          }
        }
        tensor_content: "\363\001\230<\326\020\367<<\353e>G<\351=J\027\375<\322>\035>\333\037\201=\020\022\236=\202\303\007=\177\235\230\275\257A\t>-\366\332\275\346\332\031\276\017\346:\275\220\304X>\265\360Q>\315\265`>\374j)\276\260\347q\275\233\367\252=\276>\365\275\367A\005=@\255\272\273\206\377\210=`#)\275\036\026\204\274k\"\225=\021/\003\275X\306\343\274\240P\022>\357]O>\212n\005\276\014CG\275\343 Y=\030v*>\364\253\202>H\262\020>L\267R>\032w\315=|]\377\275z\325`>\031\001\210=\300\210);j\217\342=\217\274+\276\332\311\361;\031yF\275\302qs>\315\332\317\273\321_M<W|\341\275$\034\266\275p\2713\275\007N\244\275lz\220=\213h\n\276\320\246^>\201\037\356=2\244\316\274Rh\365\275=\377\326\275\213IB\275\330\244\227=2\034 \275\266_\311=\230\377\271<3\334\370\275x\232\362\275\230\306\277=\331\0046\276\034\240\016\275\224\274\023=\323\305\r\276\231\223\321\275_}\014\276\343\250J>Q\311\210<{d\324\27571@\276\314\3761\275\305\244Z\276\355\370:\276\323\325?\276\200Y[\274W.*>x\350\365<\004\216\277\275\003\360\003>hT.\2757\037\013>\030\252\214<\270M\'\276\372\205\245\275\301&H<\346|/\276\346\313D\275\300\317D\273\325\220H\276{\035g<\035\326\002\276>\370\212\275\n\307\353=\026\331\274=\022\367?>\273WX\276(\014B>4&\244\275@H\271;Hq\003>G\2742>\003\315\026\276P\213\243=\331}]>\003\306,>j\261\322=;3D\276\024z\026>h@\n>K\2211\276\2007\037;\270\212\r\276\370\224\334<\271\016:>\266t\344\275:\027\022=\246~\311\275Ib\325\275\233!4\276\241,\201\276\234\222>\275\037g\246<DK/\275\222s$>=\256{\276\t.\257=\2358\250=x\235?\276>1\326=\355\300\355\275\250\027\357<Lc\017>\241\000\246\275\373\231`\276\000\003q;\220\022\213\275B\3441\276;\3244=hJ\205\276h\240T=\207\004%>iU\321\274\225j\225\275\240e\030\275\277\244\026>Z\243\266=M^\n\276d\331\035\275\024h\025=\355\345Y=\024h\223>\177\214\264=\361\007\211<I\342F\276\024\230\203=]\227\033\276\004\327g=\237\306\377\275D3&\275\037\354G\275f\326\360\275\242\206\241=\010\277/\275\345\"]\275\033\340[>\312^\202>-;]=\334\311\240\275\345W\036>~\253T>cp[=\266\363K>\254\3019\273\344cR\276\\\316#\276\347G/\276\251V\">F\342\363\2753z\306\275\006\202\247;B{:>YJ-\276\323\272v\274[\301&\276\236\310\000>\324O\252\274\373p\005>-?h>\360\017V>\200J\002\276\317\353\267=\002yP>X\255a\273\031\313j=\247\030\025>P\345\203>\353V1>\276\345R=xd(\275\374\0275\276\260\247n\274o\0344\276dB&>#\t.>\004W\210\275H(\">\370\200\005>\201\2261\276?\022H>&\331\347\275w?\335\275\222\325\354=-]8=\273\260\250;\024\336\263\275\332}\220\275\nG)>\364\267\333=0h\020>j\271\003\276ht^>\314;\214<\224\302\261=\342\217H=\314\207L<D\266\377\275\377=\n<\000\301\357=\250#\314\275e:\354\275\245\360Q>\211v\240\275k\240\030>?\001\016=j\366\\>-$\226\275\223~c=\265g\326=S\222\215\274\342\333\177;\021~\347\274`\220\222=\037\356m=\007\352H\273\030\241\000>\335W\354=\276\0352>X3\215\274[\205#>\226\241\274=\204\030\302\272\336r\007>\370%J\276\201j\331=/B\002>s|9>E52\276\213A\261=\024\275\034=\327{*=\337\205\270\275\365j\227\274Ak\014>Nq\025\275@\252\211\27567\017\276D\207*=\000\233P\274\341\232:>\323\236\262\275\003n\276=%\360\026\276d\341\036>\200\006\205<-\004\347=\215\350:\276w\360\343\275?3C>#g-\276\003\206\030>\270\305$\275\371\240\245=QUq=\272\360(>\322\236O\276\207\333\024>/}\325\275\234\310p\275_E\006\276\0263\314=\300%\">\307\303\221\275\372\254.\276\252\361\331=\350\232\275=f\334\316=\270\214@\276nR\307=D\367\017>\234\334\227\275\301\007\\\274\373\']>\343\206\351\275\021MS\274\300=\200;\36056\276\337G\177<\315\314W>o\rR\276`=\020\275\304l\001>\337\232^>\371C\211=S=j>\020\356\033>\377\327\357<\2707\307=?S\212>\205O\002>\352\360x=\013Y\340=\374\244\\=s\303\355\275\305\226\322\275\306\267h\275\272\0343>3\303\017>V\343*>\342h\311=\337\200\340\274D`\255=&#z=\220\335\207\275\232O\026\275n\246\253\275\206\212\317\275\345\321\240=@6\376\275\270\343P=E\235\003>\210W\217>\303O/\276{\307+\276\245]\025>j>\010>k/Z=\"\375\200=\272\221\231\275\267\2032>\237\253q>\177J@>\214*\210>:\242\230\274\334II\275zO\323=\374S\313\275\274\017y\275\006lT>\234\301\020\276\232l\266=\272I\007\275\245\242\276\275\264]\036\275\337mU>\241\260*>\355f\r\276\342t\356\275\253J\001\276k_T\275\240\231\210\276\023\216\006\276^\220\331=\035:\244\275;\256\210>\334\303]\275l\243t>\203Bz>\356\r~=_\374F>_\311O>\365ss>H\r\217>4\\<=y\310\037\276)u.>\371\374\002\275\230\376b\276\260\214^\275\226\244Q\275\004+7\275\340\274\350;\006F\257\275\261<P>\010\275*\276\263W\">\310\364r>\370qT\275\332\352y=\222\353C=\240\035T\275*4\252\273\377\371\237\273\213\214:\276b5\224\275\030\232{\275\021:l\275.\373\334\275; \311=\305j)>\301X0\276\266\2628>\353\340\364\274\037\240/<\334\373\017>\234Nl=v\346[>.+\027> \302\347;M\244\213\275\356\234(\276\037\207\\\276\360q\365<{\270\264\275\030\211\363=\224\016Q\276\313|m>j/L>\036!X\276\251#\212\274Q}J\275E)\037\276\n\032\r\276|*k\275\305\231\210\276\262%\023\2762\235!>\377\212\026>yR\250\274N\224]>\\\245&>\321\206V\276W\335\355=\261\030n>\365[[>\337\263\276\274L\334D\276\346\233/\276am\314\275\0321 \276*\345;>\225T\037\275\356E\351\275\2346\030\275\275yz>6\004\021\276\222\375\023>\271C\004>\365o >\310\037\242\274J\334\346\275\000t\237<Bl\276\274\222\351C>\214\247v=\336H\005\2766\276\346<\224\350\320\275}Q\031>M\366\377=%\226.\276\231\343\276=\022\233\317\275w~U\276/E\020>{\226g>.\207\211>\003\t*>\004\007\207>\rl\225=L\213\373=8?\364\275\tR[\276\023`\205\2757C\223\276jK?\276\247#\311\275\025j\317\275!\204!\275p\306Z\276ZmY=rcW>\023-\273=\221B\330=\362\202\337; \006\300<\034\357\245\275#\2617=|\356\254\2753\000w\2744Wr\275\326V\n>`\275u>\355\rD\276\261\342\020>\020\241:\276>\330\251=\237\3110\276b\337\323=\r&\356\275\030$\201<Z\177\302=\204Rt\275\336\322\337=\337)\027>\216\002\236=1\337=\276\240\374\334;\210=]\276{\251\030>{- >\316]\331=\260\375\211\275;[\t>_\217C\276\001\254\371\2758i\035\2769\001>>\363W\000>\304\335\025\276\340\372\352<\224$}\275\r\017\002>\254\311\232\275pif\274s\250\016>\210c/\276\342\205O\2765\351M\276B.\225=\0256\016>\006\242\243\275\340\205\014\2754ZC\275xm\351\274\337\035\023><\344\004\275\000\274\006\273\032<\362==C\354\275\327\006\013>\217\342M>$\3646\276\320\360g\275\332X\271\275s\220&>\310\255\216\2753&0>Y\327\367\275\024=N=&\006\314=\rgS>l}.\275MR\275\275\021\366\022>\250\377\\\275U\2566\276G.#>.\263X\276N|\327=W\tT>\241D\036\276\313\010\314=TI#=\027W\207=\031\332\301\275\241sZ\276\304GV\276\323\377 >\340\3019\276&r\">\210\271\n\276K\360\017\275*\211\022\276\240\nE\276P\337V<\253O.\276\270\322\306\275\314W.=Y\267*\2766EE>)\"\033\276\036\036\370=\013LZ\274\364\2747\276\346\254\215\275\202\3602\276\030\033\371=&\353?\275p[!\276\313j1>\350F8\276\004\304H>\034\022\230=\2539\204\275I\352\373\275\310\322\355<\223\033\326=\233\226-\276\206\262\371\274\224)\343\275]\314I>\233\263\206=\220DS<\275DC>\373\006\316\275\367M\">K_H>\234s~\275\013\304\'\276\006|\004>\370ZD>\004\212\005\276\316\224B\276K@^>\342i\302=\000Oz;\320r\212\275\373\310\304\275j\343A>w\333A>?9S>\311\364&\2768\312\212>\201\226U\274T\207=\275o.y>F\325\t>L2\267=i\005\211>O\216_\276\272~\342=\0067\363=\r$\205=\350\337 >\006\2573>7\210\354\275,\216==\272*\352\275\215$\002>s4\026>\324,\355\275+N\272<@\373\000>\370kY\276\350\245Q\276U\035\037>\003)\303<\303\362\007=}!\215\274\264\366X=\265\276\357\275\255\215\253=\232\317\024\276\374\361P\276>\323\265=q\002\350=\256;\361\275Q@\000>B\303\206\274~z\002>7\2442=\307[|>\2179]\276\314\356\033=\354\032\352<\266\023\323=\277Y\005>\310Xj<!\0164>\231q\236>a\215&>\340\253\230=\231\355\233=\365v >\030\257\023>o\310\375=\227~\345=\325\377\020\276\200\366u>\013\226\305\275\256u\347=3\347\003=\016\363}>$LE>x\240K=\225?2\276\217\3364>\\\035 =m\000K\276\0203\r\274\340\272\235\274z\251\201=\030@\"\276\262\035\222\275t\000q=\20664\276\263\254N>P\356S<)YH>\356$\301=b\261\342=M\374\273\275\344wj\275\242Z\220=\302\354Q\276\006\032\375=\312K\014\276\026y\217=\014\3318\276\355Z9>\346\212?\276<g\n\276\"\235Z\276\200\276\317:\200/\267\274 \000\372\273\277\030\003>\372\\\207\275m\037N>\033\321\002>\300yK\273\025\203;>\311\336R>\026\266\364=@\000x\273~\377\026\276)VU\276\347=\013>\246\223\377=\373\356\023>-l\027\276\244\007j\275@I\007\274\232\005\323=\361\315K>\250t\360<>-9\276\0245)=\r\'#\276\247\221\013>N}W\276Q\227I>\'Z\303\275\332\247\002\27685\202<^\272\323=\014\226\013\276)\025N>@\346\353\275\321\002W\276`\233\364\274T\'\215=p\235\377\273\300<4>\3676\023\276Jb\020\276\004q\"=A\262\t>\232B\272=0j\344\275\200\203\376\275\017\226!=\252\314\016\276@\310$\276\005%(\276r\351\026\276_\305J\276\362\255\372=bL(\276$\310$=I\351B>9\211@>\306\022\202\275 \270\301\273\272\241:\276\r\234.>\334<\303=\204\360X=L\306n\275rr\333=\270\020\350\275p\252a\275\014\017a\275\317!\336=2\213>\276w+Z=\233\3112\276\216\313\261=*\364\330=\320\334w\274f\233\227=\350\213\222\274\331\t\304<~GN\276\177\277\013\276\214uc\275;\rO\276\006\335\335=\200`\007;\225Q+\276\210\300\006<@S\034\274M*D><\224w=Z\275[\276\336\256@\275\276u\377=\346\220\020\275\330 \355=J\207\327\275\222\223\022>=\243\333\275\355\016T=H\203]\275\354\"\365<f\343\035>\277\375\216>\034\223\201>\315@\224\275-D\034\276\2167\354\275\244\232\313=\351\021\250\275\260\033P<\024\313\333\275\271\r\003\276\352\220A\276S\327\037>\nz\230\275\377E\003\275\300\n\222\273k^\305=u\265f\275\355\224\016\276p!\204\275\000-\206<@Mk\275.j\t\276\217\302I=V\370\002=\244\255F\276\254iM\276\204\346\335=\336]\025\276\3239\253\275\377\326\227\275\356{\375\275\221\267b>\024\346\233\275\361\220_=\310X\r>\375~\333<37\244\274\274\320\335<\222\243$>CO\037>\303E\210>%\310I\276\233\303\221=\177\t\263\275\360g\016=\263\035\227\276<<i\276\272\254\333=\332\231\220>\245<\233=\374[\314\275\263.&\276\231\004]<`l&\276MT\024\276\334\271S\276^wE\276T\232\311\275\027\234M\276d_\374=\232\321\207=\342;$\276\025Z)\276RC1\276\335Z\253<\204)\030\276V\363P>\034\004L\276\260\3270;\331\342P>\213\354O>\2620\334=\370\\\204=\237\221\"\276\032\005\030>*.c>\324x\000\276Zf1<\300u\340<4uP\276\000\321l>xG\317\275\351\006\335<\236\034\245=\362\312\010\276\0376\030>\366\244!>$J\221\275\273t\247<)A]\276\213z\261\275\304\300\277\275\367-k=_\022\211:\366x\263\275\366\376M>\023\240\373\275\003\334\032\275\347D\374\275,\314\235\272\025\211\021\276\276\233\323:.\307\365\274dk\214\275\366\264T>\314.2\275\276r<=\313\205*=\355\023\324<T\315\232\276j;)\276\203\343\025>b\'\214>!7\261=\254\362\214>\367\244\017=>\213\223<\024} =\347E\252\275&-H>v\262\n\276\231;\303\275\344Z\277\2759\275?>\307vW\276\265N\233\275\220\371\301\275\001\010\324\273G\0010>\207\331m\276\245\375\r>2pA\271\227\005\023=\022N\355\2743\313\037\276\037\367\302\274\"\304\234=\260\255\215>q#\371=P\311\346\275`\211\256\274\376\264\013>\007Z$>\000\366\260<\304\373{\275\231E\253=\022\372\202\275o\354\255\275\234d&=\322\331\212=5\202\206>\036KA\275\233\213\262<\375Z\344\275X\007\002\276\335\025}=3!G=\317e\307\274<<7\276\224<Y>\310y#\275\\\212\363=A(\205=4\341\207<dY\266=[\003\341=\361\223\r\276\256\311\266=\347\366V=\374\303 \276ho\206\274<?\216=\343\366\200=\245I&=W\325\211>\240\234\303\275?Aa\275g\036\036>s\306\305\275\016A\320\275l#W\274\003\236\217\275\343c`>\330\377U<\365\212s>\036\r\211<%\315\204\275\271\026l\276\354\253D:\025|\313=\r\005H>\217\334\275=\350\332\247=\362\336\250\275n\317\247=\276\315<>\002\324\225>h~\272=q\250\232<i\214U>\3104\237<\313\275\244>\241/\243>\354\351\373\273.\207\232=\323\353\030=4\\(=\270\317D\276\321\025\"\276Gm\202>\265\272+>\006&3>z\372\312\275v\231\230=rs\330=C\0353\274\205/\027\276\032\326\352\275u\362\270\275\016o1\275\250\275\216=\315C\'\276\332\375\003>\232\302\210\275\257\206\320\275\364\3428\276I\341/;\220^\324\273u\302\"\275(\265\217\275\252 \335=\250\022\030\276\245\005\214\275\320\330~>v\030\203=J\225\032>;+\335=q6\266<\tK\003=g_\001>\336\256\322\275j\000\003\276iCJ\276\362~_\275-\032\345=\207\326d>*\237\267<\337\3411>c\305\204>\342\326\004>\346\355,\2736!(>)\276O\272\355\267;>E\206\020\275\"\005W\275%^\203=S\316C>\320t3>\236\214z<2w\231\274\000\037\022\273\361\222\304\275\255\376\346\275J\035\027\276x\014@>v\313\246;!L0\276\235]+>onO>\321\362S>\365\250\031>\324;*\276*\326\266=`(\305\273\210\0318\276\215W\017=\362\251)\276\222\022\240\275?\243\033>\002\026\246=\320\201\350\274\362\276\273=\231}4>\'#D>\204\207\025\276\231)\303=\300v\005\276;\274\335\275\3156\256=\200k\216:o^4>\273\263S>\204>\\\276\231\214\033\275\2364\300=\2707\217<\002\250$>y\352\">\177\217K>=\264\277=\300,\351\275#\215\006>\375\216\276=\377\203Y>`\255\'\276(\340K\275\354\337\262<\003\335\264<E_\005\276p\223%\276\307\254\036=\037\326C>\235+X=|\360\326\275\010\336)\276\221\211:>\257-\030>Pv\3669m\3159\276\025\365.>E\260\021\276\353Rs=\234\304\365\275t@/\2767Jt\276\274@\010\274\366_2<\177\343\005>\r\200 <G\361C\275G\330\026>\311\271\336\275\306E\366=`N\362;\314\207I=s\2568>GI >\334\333\003\276\331\255\304=\321W\376\275 _\211\273\215\274\214\273\244\235\200\276\272\007\345=\350E\031\276\302%\023\276\277Z\354\275\326\326E\276\312\177\013>)\222s\2761\322\211>\302\265\274=gM\214<$*\300\2752B\204\275\200\2356=\261\374B\275\000\330\">(\\\335\275*QS>\364\352\315=\312a\332=\316\350q:\242\330\200\276\002\305\350=\264\242\207>i8\332\274\033\004\321\275/\"\022>\rc\214=\356\361\377\275\034\276.>\236\226\313;:\324<=4bx>/X\364<\230\017\233\2732\177F=>\356[\276\312\377q=:X\304=\202u\220=H\r\267<\005\001<>\212\217\243\275\202n\322=\302U\330=\016\377\360=\336\336\344\275\307^\024\276\372m\342=\205R\315\275\321SZ>%\000\363\275/\227Q\276M\304\001\276\214\234p=\014\375\271\275\260\217z<\200>\006\274\320\006\261\275_\366O>\004\266\270\275\021\221\027>U,\n>NZ\025\276V\300\315=g\006\017\276\213eH>\300\260\002<XN\374<m\023A>\024\010p=\217\021\'>*y\347=B\304 \2766\254\242\275/LO\276,L_=\300\013\352\275\245\204N>3\347\324\275\322\035\243\275\371\345\024\276\344\313\007=\330D\007=\357ZT>\310\021\256\274Q\376\\>, 7\275\262N\350=\334\226h=\340{\237\275\235\277[>\222-\365=\017IK><Qt=\211\274\\>\014\022.\275\352\373 \276\301uM\276\352\301\242=^\306\224=Oi\352\275L\000;=\270U\005>[b\320=\230:\250=\232.\235\275n\272G=m\006\231\275~\264o>\340\350S=\377\362[>\304\026<\276z\032x\273#*L=\267\310?=WhG>\3522\006\276d\"\004>\274;\"\276\303\336X\276\240#\240\275\035\003\236=;\377\200=\270\313\177=\021\024\025>\303!0\276P\345Q>P\220L>O\t\016>\312\025\210\275\035\373G>\377?\203>/\344q>E\032 >\247X\\>I\'Y\276\267\003/\27673\233\275\235\004\014\274\"N@>\261\222C\275@y^>\326XL>\214\244M=\211\247W\275\260\034\r>-6\027\276h\357\000\275\350\331@>Y\033\232>\245o\324<Xrc>\237\362,=\014I\027=\372b\375\273\326\350\024\276\261\347Y\276\276\220B\275\301>\256\275%\276c=@\003\251;\343V\265\275)\300\002>\337\302\247\275\224\270\234<:\343[>\304\235\364=\313\205B>\020\303\026\276R\351\017:\3165(>\200W\003>\326{_\275\372\310\374\275t\356$\276;\247Y>\226l\356\275W\374V\276`\021}=\247\330R>\300m\212\274\030\250\037;\324sR=+\t\026>X;\035>\260u#\276\312D\010>e\027\032>\362\021\202>u\232\372\275\363\0171>\261\217&>s\376\000\276\006+\020\276C\003!>6{\327<l-\371\2753\241\301\275*^\255\275\216\341\010;\320\330\305<\317/\333=\216\377\315=1X\332=\"\374\215>\003YX=\261\337\257=\360\201\245\275\217A\275\275\205\031\234\274\020\307\027\276|\2031>%\306\017\275\304 \326<\306^\377\275w\362m>\210\352(>K<6>9L\213>B\336;>\366\340\302\275x\337\004\276\2206\023>,\372<=\307^\213<\371K#>\231Cg\276\003\023>>\270o\317\275o\223\223=\317\"\020\275Sm\220\275I\303\002:\260 \021\276\033\031\273\275e\037\037>291>\262\356\013\276X\357\253<\tZ\000>\322\026\t\276a\275\274=t\'\241<\247\300\020>t^E=\225#\355\275\232B\217==bL>\372\344F\276\021\305[\276\376\233H>;\303\353\2757\034d\276@O\264<\023d)>\221 \356\275V\334\031>P\263\014\274\265\215A\275\\J\223=)\356\241\274\000R\267:+\356*>\316\200\317\275@G^=}\337\222\275XM\314\275qp\352;\207\344\234:\201\2302=\226Q\221\275$\262H\275\030\222\"\276K\260i>\367!9=\266\235\024\275M\007\301=\023\254[=\013\226\031\276\370\023x\274\276\235\340\275\342|J\276\307\t\026\276X\367P>\"\273\022>Z?\327\275_\346\313=\356c=\276\354+\360=\240\306\000\276\354\336\006>\377\2553\276\224\334H\2768L\356=\376M<\275\010\2420\276<\352\026>\327\215b>\340\342@>2~(\276\232#F\276Fm\214=\327f\017\276\244\254K\276\362\260\004>Q\363\244\275s\2410\276]\022g<\206B\251\275\246\304\261\275|\325\010\275\3344c\275\205\374\226<J{3>xB\264<\023:\010\276%\247\204\275\034\203_\275F?\036>\343\264\267=\206Y\022>\016\331\360\275\'\316<>\340\0273\275\337\267V=u\177C\276\373\256\201\276\322\304\007\276\314T\265\274/\323o8{\211K>T\303\200>u6K>\313=L\276Z\271\206>xY[\275\331\3540>\236\354+\275;Al\275\241\235\244\275\330<x\275\027\200\360\275\177\323Q\276)\322\262=\272\247\202\275\223\323\010\276w4\326=\352\376L>\325\214\232<~\271\\\276a\030\234\275\211\336\263\275\240\246\337=c\337\\\275C\230p=&\000\036\274\377<t\274\025{0\276(\020f=\232+\363=\342\2079\276&\357X\276\257\345\312=\001\232e\275R\276c>\360T\035>\256e\334<\252==\276\037k*>\301\211\240\275\207r\020\276\013\010s\276\276B\335=\343\263\251\274\024\356\335\275K\272E>\274\2029=\026\203\234>\214\202c\275\225N\321\275/\342\022\276l-.\275\016YP\275W2N>\273\001\276=k\231\004>\214,6\276F\253e=\326-\001>P\372\257\275Z3\264\275\000\275\030\276\013\\[\276b\234\275\271Ow\201\275\273\314]\275E*9\275g\256\256=\343\034\240\273\360\330r\275\225Hf\276\206&Y>\240\203\346<\326\375B>\210\031k>$\016t\275pC\314\273\246\363\245=O\210e\276\0100\261\274\341C8\276\333uO\275\301t\001\276\210]\243<\211\370\203>7R=>\035\324\013=f\177\230=/Z7>82\207\275\322Cx=\\{(>X`\026\274H\324}\274\376\2604>\\\227w>,#T>\n\374(>\365\345\266=@\013}>\316\336Z\276\355=\016\275\000\tH\276U\375#\276\003k\267=\304\270\310\275\334\340P=\246\312<> \247\251\273j\222\342\275^g\024>?\3558>\237,I\276\315\207T>\330t\362=<n)\275\271\237\027>B\323\000>\353P\033\276\273*\336\275\306J\205>\326\273\213\274\275\200_>\224\317$>rd\362<\357Sz>\232\263Z>\320\257\213>\032\300\200\275\343=\201\275\0003\330\274\375\002\263<dP&>\203\374#\276\367\rx>\253\252\027<\002\005\355\275\244\235\320= Q\344=\243Z\302;\214\262\204>\332\'`>\263K\326<Q\0221\276wJW\274\315w\372\275\276\304t>>\224+>\316\032F\275\255\227\013;\215\370\252=\367\026R>\274$K>\356q+=S\332n>N\317->V$\374=\275\037\221=\244\335$\276\300\207\204>>\214\305<.\036+=\233b\200\275\241\375\307=rM\312=9\225Q>x\035_\275\376~\355\273.\237G\276.\264\351=0\230\001\275\210v \276\224\262Y=\016\353R>\230\344q\2751\324\366\275\370\003\354\275\023\303\367\275\025CW>\000\333\004:\337I@>\221\251\314=\246\200\232\275\227\255K\276\225\020\251\275\030\334R>\327\257\331\275\204\274\374\275\245\267\022\275\246/\262\275\317#\354<\325\016\265=>\336\230\274\'\315\001\276T\305w>\177\255n>_Z8=\246\2278\276\262\321&=\274\313\205\275\002u\t=Y\310\014\276e\211\014>\257\213\203\275\3428$\275\026\301\342=_*!>\035\325/=-\225\205=X\201\263=\356\360\206\275$C3\276\353\017T>\030\361\321\275b\215\317=\257\032\363=\257\306\020\276\370*V>J|&\276\373\347\253\275\324\235\204<\244L\201=hE\001\2768\354\211\275\304\'D:\366rg>\356\233\305\274U\240B\276\337\360!\276\342c\221\275\204I\\\275\244\252\023>\264\tc>~\010E>\010\'\355\275\321+\354=\365SQ>\202\r\355;2\225\007\276\361\264&\276\021bG\275\034\324%\276\354Wn\275\025\300\021\276\337\262\n>\244c\023\276\346\240)>.\371\207=\001\267^\276\333:\010>&\3722\275\275\335\r\276D\r5>VK+=\001t!=$u}\276\327\370I>{jT\276f_r\275\350\034\253=\236I,\275\334]r={\315T\275\232!\323\275L\227_\275\021\307o\273\300\322u=\367op>\272\2046\276\033Nt=}\204\355\274\216kL>]\376\036\276pq\333\275\'\233\367\275\305L\211\275f\245x=\203t\377\275FI\317;\3702&\275\354\246\367=\213R2\276\350$\020> \2235\274\014\321\323;\357\2224>/zL=\202@\014\275\014\031\360<U\006H\276\010\311[\275\312V\322=\007\270\253\275\036Lb\276\177\0026>\036\342\350=sR\315<H\357\213\275\232E\336\275\002\036\002>\006\n\217=n\2444\276\301\301Q\275\376\206\270\275\324\265\264=\353\006\035>\216o\034=q\304\002\276z\025\213=\357\257\264\271\352\250:<0\271\331\274\377Am>\036\245\356\275\216\225g\275\320\225\356\275\325 H>\214O\224\275\376\025\276\275z\027\312<k\242\212\275\016s\035\276\214&\226\275\264\373t>g\334\276=\344\n\t\276\307\242I>\363\317P>\277Z\026>\332 \313\275\375\233g>\006\005\311;.\354\272\2754\226\314=\2605\363\275Ls$\276\334\224j>\277\nx<\010\214N>V\032\027>\3121\353=h\263\267=!\273f>\231\000\336\275?\2266=\361\033\202\275\363\266\241=U\201a=\033\234\216=2\206D=>\254/>\240\214{\273\016\037d\275\374\301\036<\323\303\205=UY=>=\\\037\2768\357\257\275\251\030L>v\027\034>\034\204\241=\"\334\001=\231\255\n>\312<\002>\036\202\033\276\300\246\207\274t\250\214>\246\240\234\275tP\304\275\341\367/>\315\223\250:\253\212*\276\233\336><\232\334L>\363\017m\276W\203&>\310%j=\376j\271<\3467\n\276HjW>V\260\004>0\230\035>\202yG>\033H\223=\264\013\007>[h\255=@\322\037>N\2627\276\356\316m>\307\236=>\265\271&>\371\316\003>\0073 \274%\035w\275\300C/>KgL>\231\006\n>\277%o\275\231\306\210\275\244\214\035\276\021:\017>\274\257Y\275\351\267\020\276\017\nT\276\245\245\344=\217\326\336=`\316~=\302TN>\312p4\276\200\231e>\000\313n\276k\211X\276\256\223\013\276\215\217\306\275\225%\'>\"\\2\276l,]=\217SM>\326\321\313=\354\351l=\244\365Y\275v\010\325\275\032\212\347=b\004W\276\342\373\202=\020#!\276(\215\377\275^A\334=\340R\315\274R\374%\276`k\351;\004\377\370\275\200!\266;@\360\004\273 \0052\275\250z\016\275\326Q\301=\036\255\275=\227\230A\276\362,\'\276\334\255d\275\317\360\t>\377\000\037>\324E>\276\357\3626>\324\0315\276}p=\276d\234C=\215\3617>Z\227\036\276\0002\244\275|p.\275j,\277=G\377\325\275\231n[>\263\\\003\276\320\262\004\275\004\035\234\275M\357\013>{\3364>H\n\277<\264\255\033\276^\256:\276\255\256\000>\221\"\020>\234\263\037\276hB\372\274\337v<>\030\362\207<\034\002u\275\204\222X\275\000\270:\275#\275\032>Xm\257\275X(h\2759\274\337\275\234\367u=?3 >\376\006\276=\302\"\362==\202\246\274\\\2564\276\376\254<\276\301\243\356\275\231\220\253\275\242\032K<Q\241\014\276\252\350\345=\367>V>\215\225->\252\201\332\275*H\007=@\337\272\274\237\032\035>;Q@\276\026W\344\275\177\211[\275\nP;>/\2440\274\274-L\276\031:\257\275G\236s=w\217\301\275,p\000\276\232\374\r\276\331\023B\276p\233\030>\306\227W\276q\352\342=k\322\n>\250\312\246\275kQ\372=\222L\301\274\320\2670>\021\276%\276&\300\212\275\213i`>\350\340\267\274\360\246\036=\366\222E=x\013\231;|\n\002>m\363><r\243\334\275C\2527\276W\354:\276\270dC>\004-\035\276\254\020\261=s\036/=\000\334\010\276S\346[>\305R\320\275\001\322E\2739\n?>\260\r\211<U4\n>\357\3714>b\300\231\274\030\337\227=<\240\245\2752\371?\275\322\301@=J\353z\276\024;\000\276\311E7>\200\230\206\275X\201\334=\217]m\275<\312\361\274\2204\213\275\020-\333=\006\335\202>x{\201>@$\376<\263Z^>\"S\377\275\273\324\346\274\272\230\032>\240K\307\274\251\004U>2D\t>\260*c>aLQ>\254\270\206\274\361\260\032<\262\371\350<\005\200\'>\213n|\276\005\034\227;]s\227;\321\265\360=\273\217]\276\273{[>=m=>\272\314;>\205\376&\276\316\270y\276\344\211g\276\332\237\30096\016\203>o7->\335\252`>E\370\373=\231\007\025\276\214\2379\276\266c\243\275\024\211\355\275H\365\234\275._(\275\234xC\276A\343\003>r\014\235\275\177xI\276\305\271s>y\233\207>\310\344\311==\341@=%\236\000=\201\275\247<\211N\204\276 r\321\275\312T\270=\271D\025>\261\016\247\275\003t\027\276\226\201\022\276\366=8\276\256\3061=\210\357\375<\313yt\275r\363\360\274\331T\372=WP\002\276\221\307\t>\335\262\n\276\214zN\276:[O=\200\227\256:\241\363\217<\310\325\324<\256H\212=\332\006J=\250\222\313\275\200\233(\273\t3\036=\242E6>%\360D>\367B\206\275\301\374L>\0278\266\275\344\311\344\275j\277\244=\266\007C;f\301\233=\211\322-\276:\243\300<\'\226m=\3327\260\275\032d\307\275\206\354\253\275\002\271\343=D\200\234\274\276\375/\276}1\371=ce2>\345\021H>y\264\036\276[\240;>,#\232\275\333\243\335\275\230\231\346<\337Q\001\276\036\250G\276\262\034*\275\031<!>\341\302Y=3\235N>J\326P;\0032\024\276z\345\313\275K\"P=\360\031\355<r\303\267\274\205\206\250\274\220Ee\274\373DL>\006\307z\276\242q\207\275\356\304/\276\177\255\376=\016\351\'>\267\265*>\351C:\276\237\017}\276\336\335S\276\324{d\275\240l\365\275Y\314\350\275\332\030\205;vo\265;Y\256B=,\'\021\276\r\036\014>\375\362\t>V\263\212=\251)t>\365\030\253\275\324\231\r=\236T\022>f|\241=\240\355\027<\227tG<]\300\334=\177\217\022>\034}B=\335E\004>\370\301\2038\377\310\010>\315Hz\275\310J\020\276B}E>Q\214\020\2728\022\266=v\200r=q\310C\276e\203\252\275\340)|\276\004\242;>\223{\303\275k\026\224\275i\362,\276/S\342\275J\3536>\334p\022\276\020\333\037>\031\262\263<>\026R>\251x]\276(\236\017\276\310\363(>\213\210B\274\201#\342\275\030O\360=`\005->\264\301\201<?=&>\037U\226\275\244\354\251=\311\343U=?\242\241\275\220\2745\276h\245q<\322qJ>\013l3\275\301\343\025\276\027Wp\275;c\222>\312\332u>\221\2556>\350j\037\275\3604U>\003\370Z\276\336\022\002\276\367\263 \276\321\245\342<\030\326\t\275\325w \276\246\360E\276\311\003\273\275\327\032\240\275y\305\212>\264P\023=*L\246\275\020\264\367=\273\356\n>\335\332U>\373\260q\276\361\355\034\276\262\034\354=\245\222\227=\200AN>\227\004\r>~\351\206=ch\233\275\n\253\356\275\365p^=\322\n\305\274\313\255\346\273wWZ\275\024\026t\2759C\210<\356\330\"\276\000[8\276\0242D\276\203\311\375=\345\213\010>\321H\213>\016\373\027>y{]>\356Pj\276\365\n\330<s\347\317=\216\005\030=\034F`\276b\000&\276-\314=\276\350\315\030=\'^\224=\340J\345=1\372\032>\351F\266=\231\263c>cK\304\275Z\223.\274\321\355\213=\246\272\017>\211\016d<.\224\372=>)0>\303\273-\275\007.\241\275\n\213u\275\205\265\325=\345Rh<\243=&\276\006}\334<n\247\350=L2[>[\255\314\275\353\020\002\276\221n\020>\200~\336<\317g\336\275f\333\273\275\360%\313\275\247\000\330\275\260\373\354\2754\276(\276\000n\'<\036\332L\276\264\230 >\271y*\2757\251\036>A\240\007>\267\266\223>\201\2105>q,\342=bY\362\275:\025+\276\225i\241=r\000\273\275NP`>c\264\215<\257\332\257=\247]\335<\343\242\335<\360\240\261<\030\374\220\275p\211\326<\003+\005>\321\2761=)rl>}#\333\274\355v\273\275\017\361\034\276\375CU>b\200+\276e\342$\276\021\254\353\275\335\364\226\275z\223l\276A\322&>\312\275\r\276\244\214!>\307\211`\276\267\300\023\275\025\233\037>D\336\232>\255,5\276\030\357O=l\201\267<\240c&\276\313\343\360\275\204y,=\346\003\342==\"q=mEg\275K\030\373\275\345\370>\276\177\253\006\275P\027\202>\376;U>\021;\032<o^\013\276\316r\360=@p\034\274\301\330\375=1g\206\274\350\365\261=S\366\001<Tt\225=\222*\361=f\263\307\275\241\212\361\275\235\0055\273s\271\327\274,\215a=\332<4>\203\345g\275\216xf\276S\r\341\275\253-\242\274\306K4>\250\220\374=\006\314A>\241L\203=\016\320\027\275\323z\243:\347\204X\275q\020\210\275\200\265\373\274\252G\005\276f\026/\275\342]\004\276\2161\253\274\1774C<\371\336\323=\010\034^>l=\254\275\007\260\032>\221\274\031\276\203f\321\274\027=+\276\215\350\313=\343`\240<\221n9\276\347*\033\274\2200D>T\214\327\274\251\323\313\274{\246\263\275\245\001\020\276\010\242\275<.G\363=:\275\037\276\026\254\013>\220\024\204\274\316\335\t\276\263\216\226\275\262\313\235=\356;Q\276PgK<sw\276\275\313 \017>\342\374E=\370\314\323<\237\014/\276\000\026\302;\323a:>\006\373\213=\030l\237<\000\002\023<\356\326\334=\353\2758>\226c\037;Z\347\r>=\2738>a\260\362\274T<I=\224\177K>\336F\027\276\035\007\'>D\234j=\265\321A>\266\022\277\275\3004=;\232\250\003>\370\304H>\353\216>>\376\222 \276\210,\336\274_\3558>4\361\322\275\273`\365\275\233\257,\276\024\\H\276f\225\366=\210N\257<\334\314w=H\235Q\276\013\033\037>\351QU\276\0302q\275d\210\271\274\222\260\207==\210V>\210>B\275\231\001\320\274<%\257=i\246\004>\256\224\316=<lY=\313\350\023>\212\'\r\275_D9>\022@Y\276\305\375\001\276\245R\000\275\377\035_=\370\031Z\276\214\210f\274\320\234\247\275T\226\020>\276\260\241>\354^w\276\260\231\000=T,m=[\\E\276\355-~>\304V\224=\216Q\362\2756H\257\275a8U=EB@>:\313\246=\000}\237\275Q6Q\275\266\352\027\276\361G\314\275\302\031F=\232\177\377=fs?=d\030\202=\337\373R>\354\240\352\275z\tm\276\224\340\236;c\017,>\315\301K\276d:\211\274\021E\345\274\t\277/>\025:=\275_a\014>`$\264<\210b\352<z\320\n>\r\313\233<\225\241\034>\262\036\246=\210l`>\211\306\356\275.L\002>\025\210\215>G\264\\>\353\264\017>3\003\331\275\352Y\252=\312\237\210=\331rR\273\200K\035\276\366?\206>U\212&>\242\274\032=\333\201\243=uY\236=3\361\020=\035\350:<5t\207<\360\327\277<\277\241\210\275I\365\203>z\225\\\275(*\367\275\250\337\344=Uu<\275\000\330\341=:e\">\326e\017\276/t\3149\340\226\323;b&\265=&\202/>\034\242{<R\267\240=QG\010><\373\360\275Prj\275\207\000R>\023\224A=\r\rW\274\000\021\241:Tum\276\324\260\201\275\246Y\224=\356\025\257\275*\203@=>\n\t>\300\200\221\275\251~#=\20611>u\035a>\3340\r=\245\376\257=#(*<\220\364\331\274\341\230\377\275\2755>\2764N\007\276\207\256:\274\037\t:>\207-\372=\212\370\366=g\210\200\276E]\324\275[\341\317=\271\242\013>\230\212|<\212L\230>\026jA\276\204\"\005>\033\275:\276h\377\020\276a\001\026>\302\2773>\217\257\353<\002\335\3428cJU>7\003\236:a\350\357\275\025C9\275\244\033\327<v\272\032\276\273el>]\305b\276\234i\351\274\363\264\376=\336\271|>Va3>\r\341\036\2768nQ\276-}~\276\204 *=\026\001/\276\202\2753>9\2115\276\321\347\234<~\345v\275\313\242t\275\256\r\242=\344\371\206\275\272\223\310\275\r\230\257=\255\203\275\275\027\265G\275\215z\035\2764\033\010\275\006BW\275\203\003F>\315\027\256=]\000\032\276A{\274=\022\310C\276\371\344.\276\215\342u\276^\2145\276\375\326\303<\224\031\002\276[(!>\201*\337<?\261\033\276R\201\"\276Oq\357\275\010\321G\276\223\177\206\276\260yB=\000QK\273\251\321i=\272\036\255\271\030\026\265\274\276G\007=g\362D\276\254\317@\276{>\021>\216U\020\276\304\365\016>\365\270;=\322o\322\275flg=p\327#>\362\274\017\276\372\200\021\276u,\n\275\027\214\034>\327\334\334<G\245\033=\372\r+=\345\200\341=\312:\245=\002\375c>\316\242k<\257\273G>(`\021\276r\325\330\275\342*I>O\337`>\216y?=\r,J>\264\314\r\2756\233\376=\257B!>\026\231\014\276\337\217Y\276\311\255%>$\3354\276\352\203\326\275v\367\200=n\225\026\276xo\245=N\203B>\373C\312\275*86>\024s1\276\034\345\034\276\370#5\275eu\335\274\360\3057<$\362\035>G*\001>\037\362\372\275\342P\313=\037Qs>F\306\205\274\242\017\035\276\335\267S\276\320l><\240\203^<\217\262\232=:\340\213=>\255\204\275\274\030i=\261\241B\276\216?$>\005\033I>\356\276\373\275A<\307\275`h\312\275\370\277\"\275r\300\347\275\027,W>\202E\257=|v9>J\350\255=\334\236\373=f\016\225\273\2429->ww\224\274\210wO>\330P\372<\340;\203\275\330\246\035\276\020\253\021\276\346d6\276\332\237H>\032R4>\271\246\203\275\026.j\276\215\363\274<\316\004E\275\323\3208>\315\337i\273\205\377\010>\234R+\276O\344\202\275\221I\017>!*v>\223\032\344\275\214\001P\276\333\006H>b\225\240\275\250D\026\276\206z?>n\032\203\274`\364\021\276o\305\222\275\266\251\275\275@0`;J\326\n\275\357/\275\273\304\335N\275\270\262\264\275\036\022W\276\261\357\315=Im\241=\237\262\364<\372\205|>{\0342>Z1\346\275\344\027E>.\000I\276]G\366<\236\030\227\275\001m<=\216\247\271\275\306v\267=R\025\003>\200\231)\276A\260\032\276\270\205\275\275\303\350b\274\355$X\275\350P~>9\r0=\353\3227\276\341\261%\275\251/\327\275\332&n=p\212\'>\316\275\274<Q\202E>\310\013u>\226~\305<zN\367=\314\264<\275\364/\026\276\247\351\207\275\300\006$\275^\246\277=4\375\005\276Nv\263=\276\244m\2755\0325\276t\264\000>n\342*=i\013\236\27503Q=L\337O\276\007V\320=\273?\263\275DZ\017\275\313\003\267<I\341\003>B\0345>$\312\037\276P\014\204\274\005\010\024>\204\346\367=\031\2564\276Ub_>\303\3114>\322/3\2763=a\275K\023 \276Y\223\352\275W\372\037\276wR\t\276L\203\026\276\207\2334\274c\242\341\275\214\271L\274\320\205u>\302#d>\344\355\212\272A\203\t\276\275\277j\276\237\330{\275V_\365<\357\223\305\275\323\007\000>?\022\310\274\337\304U=M\240\357=vKQ\276\010\210\346\2757\227\224\275\377\017\215=\371w,>K\263`\275\222;\231=[\034g\276z\244F>\212R\261=\267B8=\177Z\001\276\206qI\275%\236\007;\364!\333<B\r\034\276jD\025>+\210\033\276\345\0266>\307\202\221\276\371%\224\275\302\t1>\333\344\247=\366Wv>\372\236\n>4\315\266\275\333\356\032\276%\213&>\356\363\231\273L\252N\275\205>\310;\347x\211>\241\361\"=\n\307\261=\361\354g>`}\205<\246U\226=\307\202V>p\'\037\276\200\231\023;\213\240\233\275)I\203\274\245\203\326\275%\346\025\276\335Il\276n-c>\310\321\255<\311\005e\276\0147\253=\035\345\'>6\244C>o\337\202\276\267\351\301\275jHw=x|q==yQ>\313\316\023>\354v#>\227\312c\276L\245\222>p\371<\276wC\265\275#oy\276\374 H=\271\030\310<0S\337\274\356r\213=\376\031\030=\033q\027\276\n\017\036>\275\363\266\273\267;%>\026\356\375\2758\2534=\250\313\206>n\263\302<D\r\216>\366a\256=H\270\307=\214\025\256=\316\225\244\275\261\361\013\276:\253|\275\305\226.>\"\317%>\356\036\370\275/o\032>\210\302%>\033\311_\276\025\233\010\276\342\024==\242r\253=\014\031u=\366\300\257=a\356\007\276\300\026H\275\372\272]\275\0006<:w\366\225\274\356\302\256=,\267\000\276\355\374 >\001\254\017>%R_\276\222\007\226\275\201Q5>W\376 >k;5=\030\034?<J%\250\275\210\372\244<\013\276b>\222JC>\300r\364\273z\244H=A\224\022\276L2\332=hw\340\274\020\274\344;\3623`>\2073h>X\007d>\010`7\274\010\001H>\260WK\274\'\351\321=\204\2322>L8\010:\313\363*\275C\354]>(\367:\276\tpi\275p0\r\276\013\270\251=D\210;\276\231\216\265\275sp\207=\255MJ\276\260R{<?\3446>$R-\276%\r\323\275F\221\232=\327y-\276\306\307\017>\232\361\232=_\034d>\316\335(\276\"x\\=Z\276\276\275I\354\031=\t<C>P\324<\274\243\232\\>\320\024\332<\022\311I\276u\314[\276\2241\277\274{\320k>\210\260[>\023\342\351=\214\031d\275\355\207\327<\002\3379\276vU\320\275E\3778>\307\246w<]\277Y\2744\224f<\310\336O=\221^X>\233@\210=\013[R\275J\332\033=\025j\">k/>>e\272U>l&\340=\234\006\022\276*\000\013\275!\234\350=\270ju\273\016\273\272=D.\362=h\377S;\204\236\272\274YO\200>\035\216\247\275\200\232\006\274\262\306\241=\224\nC\276~\277\263\274h\360\n\274\225\212:>Z\322\250\275R\023\371\275\024\361\304<j\3741\276\336\315\263=\351b;>\2150\206=\260\360\223\275\n\237\027\276\240S\272=\271\324#\276\361G\361\274\302n\t>~\376\t>2\361\335\275p\360\314=Q\005?>\240\200\367;\214-:=\332\363\021\276`\251+\274)kX>\360A}\274L\020j=}\243+>\014\036<\276\353\273\n\276\312\271\033\276\306\212\032\276\032@;\276\250g\215\274\362~\317=\220\204\365\274RP\272\275\360[Z\276\272C\343=<l\013\276\006\250\337\275H\367\364\275s\264\002>sh.>\2130\'\276B<\310=#\233\346\2757F%>\242FD\276\016M\356=S*->\207\333\">\307\233\027>\214\355;=&?\257\275\250\251\223\275%k\036\276\335\3473>\204\257L=P+e\275)\375\">\036G\203\275\034\0241=\206\\\200=v\366\211\275\304O\023\276\364\343R=D\203\010\276L\346l\2758h\373\275\263V.>\020\360_\275\222V\244=\314\017G\275\000\213\376:<\360\r\276\324\346>\276\242\225R\276\366M\373=\354\371\000\276\266\232\244\275\311\373\\>0~N<\220\002v\275\033\2179>\272\201\354\275\317\202\227=#L\021>\212\273C\275|\022\253\274\300\323.\274&j\367\275\231dC\276\233\247:>s7(>>3j\275\034u>\275\306\347\243\275stI\276\351\376\241=\000\":<\240\344\"<\257%#\276\2701t\275r\"\240\275w\353\355\275,\023?\276\225\203W\276\331\032\373=\261a[>\350cb=\261#\010>V\366\341=\"\355\r\276\316\216\232\275+1<\276\000\331\230:\373\341<>\276\005\027>b-\373=\212\021\031\276\335eV>LbC\276%\347O>\225\207\007>\004\365\004\275!\316!\276\32346\276\313\010G>\346E\267\275\212\215\037>Z\031\333\275\234\327<\276\023\333\021>\006\2111=@I\014;\361\225?>\351\257\344\275\2246\266=}\362o=<\262-\276\315\212\221;\370&\370=\260\375\323\274\200\007\232\274\346\371\203\275\335n;>?\231\">ag\277\275#T\212=.\211\023>_*\226\274k\200\353=\004\304-\276Q\376L\276c\262\024\275\327\025\204=X\346\036>x\331\373\275w+\010>\314+=>\264~\327\275\002x\342=B;3\275{tW\276\314\347@\276\037\227@>k\t\242=I\212/\2762\202\215=\t\305\203\275\220`\370<\346h\r\276\014\373\247=C\203e>o\262\r\276\254\261$<\231\274l\275*L\013\276\r|\272=k\300\264=\335\356y>\224\206R>H\223\'\276!*\032\276\277\347\023=V\025T\2754\266w>\020\267\202=\336\356\251\275x\202\010>\272\275T>T\334(=\027\364W>E}\r>]\216\"\276J<\321\275~\267\275=\275\254\226=N\236^\275SCB>>\245B\276jh\n>\341v\322=\020\206\033>td~>\364d\r=z\030\373\274\260#1>\207;\246=j9\377\2751\326\220=MT <|\255.>\357\277F=z-\204=X\216\301\275\223\356\t>\260\360\223>\316\035\337\275\244P>\276\347O\244=\025\257d\276\004\247\n>\220J\001>w@K\276\264\207~=g\346m>\374\004\225\275\351\376\342=vpB\276\367\022\247\275BY4\275\010\245\363=WhJ\276\235[K\276)w\231\275\354C)\276\30572\275ML\030\276\236\231\027\276vGt>\236v\003>\361\035\037\276@\266\260\275R\372\272\275O\207\010<Q\315@\276\245WK\276\341\227\366=K\344\032>\030\333~\275l=\327;O\330I>\3670\002=\2505\206>\220\325\007>\341i\220>aX\'>\322\002\n>\000\267\027\275\212\223\365</.w\275DB\334\275{\003C\275\274V\253\275\207\007\'\276`\322\'\276d\320%>\260\2365\276\206\273\024>m\314\021>\351\324^>\334\307\310\274\304\213\006\275t\"\014\275\006,\247=J*\303\274Ex\255=|\273C>\255\365\237\275\275\364&\276T\351\305\275\202\032\256=\0202\207<\347.R\276&\277\240=\256\255X>\266\002\030>\2068R\276D\370i\275\036yA\274\344\374\\\276 ~\234<\226\315\362=\250gK\276|\277I=\022\'S>\212\217\314=\030\204?\276\223\021\320\275\246h\361=\177\205\303=T\313`\275JZ\213=//#\276X\361\203\275\377 \037\276\202jW\276\267\235\357=\367\3213>\264\352\205=O\306\034>\305\262\014>\220X\000\275Z+\330=\3003\275=WO\342\275\344\325W\276G%\260=\224G\235\275/\3678\276|D\252\275\254Q*=B\357\256\2750\340\020\276\210h\307\273\234Q\'=\312 \177\2756\225\257=\327S\235;\312\205K>)\007\021>\216\3752=\010\270P>;>E>\241/A=\372\231\351=c\344\265=2K!\276\322\004\206=\267cL>a\004\023=\340 \310=\220\356\r>!\203\033\275\311\277\341=r\004\023\275\270I\226<\010\004\211=\"\254\210\275\300\365\261;7\032R\276^;\255\275\343\362*\276n\343Q\276\276\360\245=H=y\275\313\350\310=%<4>i\266\034\276F\276\027>$%T\275\220\304=\275\332\014\025>\026\264\302=\361\242\210=\272j\227\275\224+j\275\274\240\332<\320` \276]\n\026\276\255N\014\276\310p\030>\0144\237\275`9\373<;\3500\276\3456D\276Ki\000=\225\310\006\276z\230\016\276\300\005\026\276\360\316\237=\236\367K>\336\363T\276\315\317=\275t\352\000\276\223\352\333\275\034\335P\275\354gY\276\311\376.\276\275\3666>i\376E\275\030\303F\276a\252\355=\300RF\276zMF\275\360\336N>\254yb=\334\202\317<4\350@>11A>\371@\362<\013cN>YF\377=\372V\350\275(\365\030\276\200\256\252\272\205!\234<?\265\001\276\230\374\334\275\026\r\002\276H\332\257\273\376\315\351=\261\212\027>\202?\007\276\014]!>#\264\241\275\250\013v\275W\004\277\275\240\326\310<\025\rB>l\245R\275\204\3639\275\263g/\276N[\022\272\037\321\350\275S\032\">\303:7>W\247$>\016\357\344\274\237YO>\000,V\273\252\242\302\275\263\200R\276\260\213\212\275Y\330\035\272\377\363\032=&l\265\275Z\273P\276\252\251\311=\026\320\220=dVJ=\031\3629>:gm\275\002\026\246=&\264\326<\225c!>\373xT>\262\022\264\275uk0=\257\234\036>\032\320\263\275<\024S>,g(=\014r\361\275j{\032\276\315U:>\006\205\230=\317\271\033>O]\312\275\265\000E\276\026\362&>\367Z\320\275\256\246\377=>\356X\276\246\236\336\275\366\361\\\276\252d\302=L\221\276\274\021\017k\2748\252\252\275\006m\020>\242\262\263=\345\371\345\275\033\342^\276\315m\212\275\254P\007;\330!\341\275\270$J>\036\330\215>P\306\026\275\240\346.<o\366 >\\\2300=_\354\221:\320\227\215=\306\310\377\274\235\222T\276\261\210\243=\226\257\001\276\256\351\326=\307\333\013>\233CG=\\\240\201>@\202\275;j\321W\276\354M\r\276\225\341\256\275\220\274M\276\363\020\376\272\024\007[> < >\377\303k>G\351J\276SGw\276k\202\261\275\016\036\025\276\256\314\274=$\273N\275\007g\302\274c\340\r=-|\026\276L\233\272\275L\356M\276\320UJ=O\322\302\274={\252\275\203xJ\276\324\214\271=Jn\005<\032\013[\276\252\025I>\017p\344\272L\251?\275GK\315\275]0\374=\034\010\\<\324\265\206=\033\331\003\274\\\352\221\2756\367\305=;\245G>\3274S\276\305/\377<i\247\222=\200\313\240=\265\303[<F\205\305=\233E@\275\303h&>\304A!\276\020\371\312\275\340p<\275\240\007\002\275\t\nC>\000\266D:N\222\243\275U\363<>#H=\276\365/Z\276\324\024*\275\032\210\223\275\274\231E=B\006\362\274\244\320\375\275\177\272\310=\306\270E\276A\034\036>\004EU=\332r\301=\232s\375=\030\245\312\274\250\224\300\274&\213\227\275\353:\264=\000\267\201\275\336\t4\276cL\305\275{\313V>H\313?\276\252P\014\276\004\031\013<v\030\016\276`\025W\276Wko\275yN!>\252\240\265=\256sN>\3106\027\276\340O\207\275\322\306\317=\237;.>\242}\315=\321\270D= A\247;\370\004\022>\324hO>\246 \227=//\010\275\036\227%>\024v\021=d\252S\2760\237\312\275\235\261E>&:\031>\300=\202=\263\311\024\276\337b\010\276\257,^=\037}\210>\302\004\016\276\350+\010>\276\272\037>\211\222\362=\235\0344>\334\303\300\275T\367K>\035\241\034>\014\001e>>\310\205\275\373\354\256=\334\3441\275\010>$\276\215\217\007>\034\\\337\275\351\250Z\276x|s>7q\375=\264\n8=\322r\201>d\2474\276\305p\200>\215\3041>\1777]\276\017\375|\276\0248\357; \3032>\037\2730\276\375\264\031>\336\304[\275n\211\261=\004\3706>u7G\275!\372\033;-J=\276c\374\335=t\277\201\275\343v\203>D\037\232=\255z\013>Qb\212=\225\221O\2760\266\337=\264tR>\366\315\231\275EK\304<\033:E\276f_\030\276\364\\->\260\375\332\274G:\233=\177\367\244\274Z\254\022>(\273\375<2K\350\275\001\330\350\275\260]\032\276\017H\206\2764\224K\276T\324\227\275\';\027<\313\364\271\273\342:\017\275\261UQ>\333>\'\276\304O\n\275\3552U>\300\371M;\224\0218=\375\370,>\306>\203=\367^\303\275\226\277\236=\002c\357=\021\365\002\276t\031\227\275\317F%\276\\u\023\276\250\220\007\276\213G\034>\215\030\364=\212\375\375=6\240\200=[\275\021\276\223\213I>N\307\222=\262X[\276\365=G=\206T\225\274\207\\\352\272\231\317O>7\013\334\275\t\020e;\2422[>\213\333\304\275\323\2602>\271P,\276\331\t\033>d8~=\037\272(\276\0108\345\274L4D\276\275\374 \276lq\021\276\000@\307=\351,\016=\360:\r\276\330V:\276\263\321@>U\265\352=\233\233\032\276\257\333\t\274\277j\326\275\346&\277\275KJ.\276\270\360h\275\230\377\271\274~\366\352=\247\304\262=X\213\007>\355<X>\347\350B=\'7j>;Y\207>\307\346k=\215\271\242\275\r)p>F\325\362=\270\217\232>\372!\031=\006\177\\>\006C\317\275K\315\362\275F\232\253=\364\245\033>\3155\024\276\306\021<\276(\262-\276\346\326z>\364-\n=S\010\300\274ry\357=\206\rC>\374x\332=\2139t\275\335\256\240=\026\274\211=qO\"\275\024~w=\220z\021\276\"b\315\275\025\3255\276\324\326l\275\372% >j\340\t\276Qi\245=k<;\275\354\243H\276\317v~\274h\365/\275\350\257|\275%\337\226\2756,h>0\0016\276l|\363\275\206\026\025\276\241\320\207>\354\264`\275\217-\214\275N\337)>\350\315q>\234\272x\276sk\022\276\321\340\235=\257\252\200\275\240f\232\273`\"\336\2751]\n\276\366f\321=3ju=\311\010\007>h\370?\275\"\034\353=j\337W>\213\375\022>\240Q\350=\326\376`>\271s\211\276\213\353\377=\201\251\214>t\001\002>\027I\215>\205*\373=z\\z\273?vw>-06>\366<4=\263\227\206=\177\354m=\213\020\325\275OSD>\254\304n\275\033\341F=\222\317\244=.#\336<5\200\362=\031\241]=\216b,\2763[Y>\371t\216=\370G\022\275\271\377\317\275\267\253J=F\310\211>@un\273\023\203\257\275\373\241q\275\3002\320\275U6\006>\n\261A\276\266\374\242\275\343\260\370=\031\215\210=e\362\333=\036%\246\275f\347O=\265\304$\276\231FJ\275uP0\276\\o\016\275R\033}\276,\234\000=^TM=\312\374b\276\2230\375<\200\223r=\370\027\227\275\264@w\275\352sY\276\371\"\341\275\037R\007=\324\223\211>3!\313=\313\033f\276xT\256=\310\036G=E\025\006>\306\301\311=\222\233\233\275\346\301q\275\221.\263=\r\211\350\273\264\214\365\275\206\002-\275\303z\212\275\331s\217\275\246G\323=\203\376K>\365]h\275\320\245\200=\262\273:\2767\355\307\275!\240\215>m\237\t\276\332hS>f\357\362=Xp<\2760e-\274\312\345\215\275\332R\367=\233/\020>\032\021+>\3137\014<\225`\343\275\n\257/\276cN\250=\2674N\276<\276/\275\200\333\361\274J\211\264<N\261\004>jVM=Wb\215\275&\311\363\275\337h\300\275\336*\003>\037N\365<\203\277\025\276\264\037Q\276\020\033\007>\271\320z\274_P\016\275>\334\237=b\375C=\260\316L>G\210\t\276\254\250\351\275l6\221=iFS> [\240\275\024\205\214\275\230\212p\276\207\355\354=|I\272\275\237\377\n\276|\311\000>\301\340\344=\001i\211>\214o\331\2750\312\026\276\336\370\346\275W\315I>\247\273\216<5\017w>\307\3631\276\216\260\275=!b6>\006\264#\276\267\'?>\322\246\245=+\354?<}\250]\276\226\323\222\275oc0>\000\376\213\272Q\310Y>h\337\317<\217\020b\275\0102!>\254~y=\264+\024\276=\000\"\2766\2466\276\360\331n\275\332\356\024\2760,c\274!\0177\275\035;\321=\245D\317\275L\372\341=\t\315\034\276\227Q\001>0^N\276U\213<>\215k\233\273\366/\353=\255\260\022><\201V\276\206\200\316\275\023\377\004>\230p\024\276\334\263V=x\364\236<\305\317R\276\330\323\276<\345\t\345<\373\206@\276\004\177\372\275\302\000\252\275\274\326\016=6\016>\276)\341\354\275\263E\033\276\302\316\337=X\201\271\275\331%\210=\222\251\020\276\r\333>>(\262\332\274^\3758\2761f\315=\020\340P\274\210\357\310\274\202\313\032\276\345\357\274=\220\005\225=t\332\016=\032\304J\276O\264D\276D\334y\274\001\371D>\312w\364<l\366\273=\'\272\213\275#\020\255=\253\210\020>\331\370\261\275p\257l<\374\003\300\274\252\235\264\275\265Fm=\032\203\322\275]Y\030>\366\020C\276\265H{\276\036\221\312=\312\330\223=x\307\005=\027\0262>\212>\353=i\"\255\275*\326\321<\330I\024\276\3550\000\276\027\005:\276\373\241\365=\324Du=\235*t=y\336\263>$\2227=&\224=>k\317\236>c\303I\276\302\261=>\332\"\023>\371\331:\275m\241\346=\001\326\002\276e\205I\274)\272\005\276d\274_=F\366{\275\227\315H>\005\240\037>\217\037\'\275E\270\224\275\332\330v=\005\267/\275\016[z=\t\375\224=\247X\376\275\245w\244\273\203,\377\275\305pd\275(\364d\276\357F\034>/\317\254\275`Az>\"4\">\277Sn>W\372K\276z[\243>"
      }
    }
  }
}
node {
  name: "dense_2/bias"
  op: "Const"
  attr {
    key: "dtype"
    value {
      type: DT_FLOAT
    }
  }
  attr {
    key: "value"
    value {
      tensor {
        dtype: DT_FLOAT
        tensor_shape {
          dim {
            size: 64
          }
        }
        tensor_content: ")\340\251:\376FO=\333Y\275<\244of\274S\374\021;f:\202\274\365|\215=2\370d=\350\246\345\273q\017\034\274)\342\247\273\362=\026\274\313\231\"=\261\360S=\245\342\r<\000\000\000\000d\256\275\273\000\000\000\000s\207\254\273{\014\027\275\031/\212<J\037\006\274\355\273\245:7\251Q<\000\000\000\000\234H\341<A3\360\273\225\370\337;\000\000\000\000M\365\3519\356d\213=\374\351\212=\326 \271\272\312u\352<}\220J;\255\317\024=\276\025\247:\243\376%\272O\2004\274\0130\266\273g\032\274=P+\351\273\000\000\000\000\200\245\370;*<D=\031D\253\273Y^\234==\277i=\302\004\253=s\227\203<\032\206\002<\036\223\216;H\313\365\273Lv\031;\tZ \2744Q\203<\322\225\214<\025zX=\261\024\202:\372\205h<\021\2720\2735\232{=\340\2315<\243:\201="
      }
    }
  }
}
node {
  name: "dense_2/MatMul/ReadVariableOp"
  op: "Identity"
  input: "dense_2/kernel"
  attr {
    key: "T"
    value {
      type: DT_FLOAT
    }
  }
}
node {
  name: "dense_2/MatMul"
  op: "MatMul"
  input: "dense_1/Relu"
  input: "dense_2/MatMul/ReadVariableOp"
  attr {
    key: "T"
    value {
      type: DT_FLOAT
    }
  }
  attr {
    key: "transpose_a"
    value {
      b: false
    }
  }
  attr {
    key: "transpose_b"
    value {
      b: false
    }
  }
}
node {
  name: "dense_2/BiasAdd/ReadVariableOp"
  op: "Identity"
  input: "dense_2/bias"
  attr {
    key: "T"
    value {
      type: DT_FLOAT
    }
  }
}
node {
  name: "dense_2/BiasAdd"
  op: "BiasAdd"
  input: "dense_2/MatMul"
  input: "dense_2/BiasAdd/ReadVariableOp"
  attr {
    key: "T"
    value {
      type: DT_FLOAT
    }
  }
  attr {
    key: "data_format"
    value {
      s: "NHWC"
    }
  }
}
node {
  name: "dense_2/Relu"
  op: "Relu"
  input: "dense_2/BiasAdd"
  attr {
    key: "T"
    value {
      type: DT_FLOAT
    }
  }
}
node {
  name: "dense_3/kernel"
  op: "Const"
  attr {
    key: "dtype"
    value {
      type: DT_FLOAT
    }
  }
  attr {
    key: "value"
    value {
      tensor {
        dtype: DT_FLOAT
        tensor_shape {
          dim {
            size: 64
          }
          dim {
            size: 64
          }
        }
